{
  "0": "<[PAD]>",
  "1": "<[UNK]>",
  "2": "<[INS]>",
  "3": "<[BOS]>",
  "4": "<[EOS]>",
  "5": "<[USR]>",
  "6": "<[SYS]>",
  "7": "<[BOT]>",
  "8": "<[VEC]>",
  "9": "<[END]>",
  "10": "1",
  "11": "2",
  "12": "3",
  "13": "4",
  "14": "5",
  "15": "6",
  "16": "7",
  "17": "8",
  "18": "9",
  "19": "0",
  "20": "!",
  "21": "@",
  "22": "#",
  "23": "$",
  "24": "%",
  "25": "^",
  "26": "&",
  "27": "*",
  "28": "(",
  "29": ")",
  "30": "_",
  "31": "+",
  "32": "\"",
  "33": "№",
  "34": ";",
  "35": ":",
  "36": "?",
  "37": "-",
  "38": "=",
  "39": "{",
  "40": "}",
  "41": "[",
  "42": "]",
  "43": "<",
  "44": ">",
  "45": ",",
  "46": ".",
  "47": "\\",
  "48": "|",
  "49": "/",
  "50": "~",
  "51": "`",
  "52": "a",
  "53": "b",
  "54": "c",
  "55": "d",
  "56": "e",
  "57": "f",
  "58": "g",
  "59": "h",
  "60": "i",
  "61": "j",
  "62": "k",
  "63": "l",
  "64": "m",
  "65": "n",
  "66": "o",
  "67": "p",
  "68": "q",
  "69": "r",
  "70": "s",
  "71": "t",
  "72": "u",
  "73": "v",
  "74": "w",
  "75": "x",
  "76": "y",
  "77": "z",
  "78": "A",
  "79": "B",
  "80": "C",
  "81": "D",
  "82": "E",
  "83": "F",
  "84": "G",
  "85": "H",
  "86": "I",
  "87": "J",
  "88": "K",
  "89": "L",
  "90": "M",
  "91": "N",
  "92": "O",
  "93": "P",
  "94": "Q",
  "95": "R",
  "96": "S",
  "97": "T",
  "98": "U",
  "99": "V",
  "100": "W",
  "101": "X",
  "102": "Y",
  "103": "Z",
  "104": "а",
  "105": "б",
  "106": "в",
  "107": "г",
  "108": "д",
  "109": "е",
  "110": "ё",
  "111": "ж",
  "112": "з",
  "113": "и",
  "114": "й",
  "115": "к",
  "116": "л",
  "117": "м",
  "118": "н",
  "119": "о",
  "120": "п",
  "121": "р",
  "122": "с",
  "123": "т",
  "124": "у",
  "125": "ф",
  "126": "х",
  "127": "ц",
  "128": "ч",
  "129": "ш",
  "130": "щ",
  "131": "ъ",
  "132": "ы",
  "133": "ь",
  "134": "э",
  "135": "ю",
  "136": "я",
  "137": "А",
  "138": "Б",
  "139": "В",
  "140": "Г",
  "141": "Д",
  "142": "Е",
  "143": "Ё",
  "144": "Ж",
  "145": "З",
  "146": "И",
  "147": "Й",
  "148": "К",
  "149": "Л",
  "150": "М",
  "151": "Н",
  "152": "О",
  "153": "П",
  "154": "Р",
  "155": "С",
  "156": "Т",
  "157": "У",
  "158": "Ф",
  "159": "Х",
  "160": "Ц",
  "161": "Ч",
  "162": "Ш",
  "163": "Щ",
  "164": "Ъ",
  "165": "Ы",
  "166": "Ь",
  "167": "Э",
  "168": "Ю",
  "169": "Я",
  "170": "\t",
  "171": "\n",
  "172": "\r",
  "173": " ",
  "174": "'",
  "175": "–",
  "176": "‘",
  "177": "--",
  "178": "-а",
  "179": "-е",
  "180": "-и",
  "181": "-й",
  "182": "-м",
  "183": "-о",
  "184": "-у",
  "185": "-х",
  "186": "-я",
  "187": "ab",
  "188": "ac",
  "189": "ad",
  "190": "ae",
  "191": "af",
  "192": "ag",
  "193": "ah",
  "194": "ai",
  "195": "ak",
  "196": "al",
  "197": "am",
  "198": "an",
  "199": "ap",
  "200": "ar",
  "201": "as",
  "202": "at",
  "203": "au",
  "204": "av",
  "205": "aw",
  "206": "ax",
  "207": "ay",
  "208": "az",
  "209": "ba",
  "210": "bb",
  "211": "bc",
  "212": "bd",
  "213": "be",
  "214": "bf",
  "215": "bg",
  "216": "bi",
  "217": "bl",
  "218": "bn",
  "219": "bo",
  "220": "br",
  "221": "bs",
  "222": "bu",
  "223": "by",
  "224": "ca",
  "225": "cc",
  "226": "cd",
  "227": "ce",
  "228": "ch",
  "229": "ci",
  "230": "ck",
  "231": "cl",
  "232": "co",
  "233": "cr",
  "234": "ct",
  "235": "cu",
  "236": "cy",
  "237": "da",
  "238": "de",
  "239": "di",
  "240": "do",
  "241": "dr",
  "242": "ds",
  "243": "du",
  "244": "dv",
  "245": "dy",
  "246": "ed",
  "247": "ef",
  "248": "ei",
  "249": "ek",
  "250": "el",
  "251": "em",
  "252": "en",
  "253": "ep",
  "254": "er",
  "255": "es",
  "256": "et",
  "257": "eu",
  "258": "ev",
  "259": "ex",
  "260": "ey",
  "261": "ez",
  "262": "fa",
  "263": "fc",
  "264": "fe",
  "265": "ff",
  "266": "fl",
  "267": "fo",
  "268": "fr",
  "269": "ft",
  "270": "ga",
  "271": "ge",
  "272": "gg",
  "273": "gh",
  "274": "gi",
  "275": "gl",
  "276": "gn",
  "277": "go",
  "278": "gr",
  "279": "gu",
  "280": "gy",
  "281": "ha",
  "282": "he",
  "283": "hi",
  "284": "hn",
  "285": "ho",
  "286": "ht",
  "287": "hu",
  "288": "hy",
  "289": "i-",
  "290": "ia",
  "291": "ib",
  "292": "ic",
  "293": "id",
  "294": "ie",
  "295": "if",
  "296": "ig",
  "297": "ii",
  "298": "ik",
  "299": "il",
  "300": "im",
  "301": "in",
  "302": "io",
  "303": "ip",
  "304": "ir",
  "305": "is",
  "306": "it",
  "307": "iv",
  "308": "ix",
  "309": "iz",
  "310": "ja",
  "311": "je",
  "312": "ji",
  "313": "jo",
  "314": "ju",
  "315": "ka",
  "316": "ke",
  "317": "ki",
  "318": "km",
  "319": "kn",
  "320": "ko",
  "321": "kr",
  "322": "ks",
  "323": "ky",
  "324": "la",
  "325": "ld",
  "326": "le",
  "327": "li",
  "328": "ll",
  "329": "lo",
  "330": "ls",
  "331": "lu",
  "332": "ly",
  "333": "ma",
  "334": "mc",
  "335": "me",
  "336": "mi",
  "337": "mm",
  "338": "mo",
  "339": "mr",
  "340": "ms",
  "341": "mu",
  "342": "my",
  "343": "na",
  "344": "nd",
  "345": "ne",
  "346": "ni",
  "347": "no",
  "348": "ns",
  "349": "ny",
  "350": "ob",
  "351": "oc",
  "352": "od",
  "353": "of",
  "354": "og",
  "355": "oh",
  "356": "ok",
  "357": "ol",
  "358": "om",
  "359": "on",
  "360": "op",
  "361": "or",
  "362": "os",
  "363": "ot",
  "364": "ou",
  "365": "ov",
  "366": "ow",
  "367": "ox",
  "368": "pa",
  "369": "pe",
  "370": "ph",
  "371": "pl",
  "372": "po",
  "373": "pp",
  "374": "pr",
  "375": "ps",
  "376": "pt",
  "377": "pu",
  "378": "py",
  "379": "qu",
  "380": "ra",
  "381": "rd",
  "382": "re",
  "383": "ri",
  "384": "ro",
  "385": "ru",
  "386": "ry",
  "387": "sa",
  "388": "sc",
  "389": "se",
  "390": "sh",
  "391": "si",
  "392": "sk",
  "393": "sl",
  "394": "sm",
  "395": "sn",
  "396": "so",
  "397": "sp",
  "398": "ss",
  "399": "st",
  "400": "su",
  "401": "sw",
  "402": "sy",
  "403": "ta",
  "404": "te",
  "405": "th",
  "406": "ti",
  "407": "to",
  "408": "tr",
  "409": "ts",
  "410": "tu",
  "411": "tv",
  "412": "tw",
  "413": "ty",
  "414": "ub",
  "415": "uc",
  "416": "ud",
  "417": "ue",
  "418": "ug",
  "419": "uk",
  "420": "ul",
  "421": "um",
  "422": "un",
  "423": "up",
  "424": "ur",
  "425": "us",
  "426": "ut",
  "427": "va",
  "428": "ve",
  "429": "vi",
  "430": "vo",
  "431": "wa",
  "432": "we",
  "433": "wh",
  "434": "wi",
  "435": "wn",
  "436": "wr",
  "437": "ww",
  "438": "xx",
  "439": "ya",
  "440": "ym",
  "441": "ys",
  "442": "yu",
  "443": "za",
  "444": "ze",
  "445": "zo",
  "446": "аа",
  "447": "аб",
  "448": "ав",
  "449": "ад",
  "450": "аж",
  "451": "ай",
  "452": "ак",
  "453": "ал",
  "454": "ам",
  "455": "ан",
  "456": "ап",
  "457": "ар",
  "458": "ас",
  "459": "ат",
  "460": "ах",
  "461": "ба",
  "462": "бе",
  "463": "би",
  "464": "бл",
  "465": "бо",
  "466": "бр",
  "467": "бу",
  "468": "бы",
  "469": "бь",
  "470": "бю",
  "471": "бя",
  "472": "ва",
  "473": "вд",
  "474": "ве",
  "475": "вз",
  "476": "ви",
  "477": "во",
  "478": "вс",
  "479": "ву",
  "480": "вы",
  "481": "вь",
  "482": "вя",
  "483": "га",
  "484": "гг",
  "485": "ге",
  "486": "ги",
  "487": "го",
  "488": "гр",
  "489": "гу",
  "490": "да",
  "491": "де",
  "492": "дж",
  "493": "ди",
  "494": "до",
  "495": "др",
  "496": "ду",
  "497": "ды",
  "498": "дь",
  "499": "дэ",
  "500": "дю",
  "501": "дя",
  "502": "дё",
  "503": "ев",
  "504": "ее",
  "505": "ез",
  "506": "ей",
  "507": "ек",
  "508": "ел",
  "509": "ем",
  "510": "ен",
  "511": "ер",
  "512": "ес",
  "513": "ет",
  "514": "ех",
  "515": "ец",
  "516": "ею",
  "517": "её",
  "518": "жа",
  "519": "жд",
  "520": "же",
  "521": "жи",
  "522": "жу",
  "523": "жь",
  "524": "жё",
  "525": "за",
  "526": "зв",
  "527": "зе",
  "528": "зи",
  "529": "зм",
  "530": "зо",
  "531": "зр",
  "532": "зу",
  "533": "зы",
  "534": "зь",
  "535": "зя",
  "536": "ив",
  "537": "иг",
  "538": "ид",
  "539": "из",
  "540": "ии",
  "541": "ик",
  "542": "ил",
  "543": "им",
  "544": "ин",
  "545": "ио",
  "546": "ир",
  "547": "ис",
  "548": "ит",
  "549": "их",
  "550": "ич",
  "551": "ию",
  "552": "йл",
  "553": "йо",
  "554": "ка",
  "555": "ке",
  "556": "ки",
  "557": "кл",
  "558": "км",
  "559": "ко",
  "560": "кп",
  "561": "кс",
  "562": "кт",
  "563": "ку",
  "564": "кэ",
  "565": "ла",
  "566": "ле",
  "567": "ли",
  "568": "лл",
  "569": "ло",
  "570": "лу",
  "571": "лы",
  "572": "ль",
  "573": "лю",
  "574": "ля",
  "575": "лё",
  "576": "ма",
  "577": "мг",
  "578": "ме",
  "579": "ми",
  "580": "мл",
  "581": "мм",
  "582": "мо",
  "583": "мс",
  "584": "му",
  "585": "мы",
  "586": "мь",
  "587": "мэ",
  "588": "мя",
  "589": "на",
  "590": "нг",
  "591": "не",
  "592": "ни",
  "593": "нк",
  "594": "но",
  "595": "нт",
  "596": "ну",
  "597": "ны",
  "598": "нь",
  "599": "ню",
  "600": "ня",
  "601": "нё",
  "602": "об",
  "603": "ов",
  "604": "ог",
  "605": "од",
  "606": "ое",
  "607": "оз",
  "608": "ой",
  "609": "ок",
  "610": "ол",
  "611": "ом",
  "612": "он",
  "613": "оо",
  "614": "оп",
  "615": "ор",
  "616": "ос",
  "617": "от",
  "618": "ох",
  "619": "оч",
  "620": "па",
  "621": "пе",
  "622": "пи",
  "623": "по",
  "624": "пу",
  "625": "пы",
  "626": "пь",
  "627": "пя",
  "628": "ра",
  "629": "рд",
  "630": "ре",
  "631": "ри",
  "632": "рк",
  "633": "ро",
  "634": "рс",
  "635": "ру",
  "636": "рф",
  "637": "ры",
  "638": "рь",
  "639": "рю",
  "640": "ря",
  "641": "рё",
  "642": "с-",
  "643": "са",
  "644": "се",
  "645": "си",
  "646": "ск",
  "647": "см",
  "648": "со",
  "649": "сп",
  "650": "ср",
  "651": "сс",
  "652": "ст",
  "653": "су",
  "654": "съ",
  "655": "сы",
  "656": "сь",
  "657": "сэ",
  "658": "сю",
  "659": "ся",
  "660": "та",
  "661": "те",
  "662": "ти",
  "663": "тк",
  "664": "то",
  "665": "тр",
  "666": "ту",
  "667": "ты",
  "668": "ть",
  "669": "тэ",
  "670": "тю",
  "671": "тя",
  "672": "тё",
  "673": "уг",
  "674": "уд",
  "675": "уж",
  "676": "уз",
  "677": "уй",
  "678": "ук",
  "679": "ул",
  "680": "ум",
  "681": "ун",
  "682": "ур",
  "683": "ус",
  "684": "ут",
  "685": "уч",
  "686": "ую",
  "687": "фа",
  "688": "фе",
  "689": "фи",
  "690": "фк",
  "691": "фо",
  "692": "фр",
  "693": "фу",
  "694": "фф",
  "695": "фы",
  "696": "фё",
  "697": "ха",
  "698": "хе",
  "699": "хи",
  "700": "хм",
  "701": "хо",
  "702": "ху",
  "703": "ца",
  "704": "це",
  "705": "ци",
  "706": "цо",
  "707": "цу",
  "708": "цы",
  "709": "ча",
  "710": "че",
  "711": "чи",
  "712": "чо",
  "713": "чт",
  "714": "чу",
  "715": "чь",
  "716": "чё",
  "717": "ша",
  "718": "ше",
  "719": "ши",
  "720": "шо",
  "721": "шу",
  "722": "шь",
  "723": "шё",
  "724": "ща",
  "725": "ще",
  "726": "щи",
  "727": "щу",
  "728": "щё",
  "729": "ые",
  "730": "ый",
  "731": "ым",
  "732": "ых",
  "733": "ье",
  "734": "ью",
  "735": "ья",
  "736": "эд",
  "737": "эй",
  "738": "эк",
  "739": "эл",
  "740": "эм",
  "741": "эн",
  "742": "эп",
  "743": "эр",
  "744": "эт",
  "745": "эх",
  "746": "юн",
  "747": "юр",
  "748": "ют",
  "749": "яв",
  "750": "яз",
  "751": "яй",
  "752": "ял",
  "753": "ям",
  "754": "ян",
  "755": "яр",
  "756": "яс",
  "757": "ят",
  "758": "ях",
  "759": "ящ",
  "760": "ёв",
  "761": "ёд",
  "762": "ёз",
  "763": "ёк",
  "764": "ёл",
  "765": "ём",
  "766": "ён",
  "767": "ёр",
  "768": "ёс",
  "769": "ёт",
  "770": "-id",
  "771": "-up",
  "772": "-го",
  "773": "-да",
  "774": "-за",
  "775": "-ка",
  "776": "-на",
  "777": "-не",
  "778": "-ну",
  "779": "-то",
  "780": "-ты",
  "781": "-ха",
  "782": "abo",
  "783": "acc",
  "784": "ace",
  "785": "ach",
  "786": "ack",
  "787": "act",
  "788": "acy",
  "789": "ada",
  "790": "add",
  "791": "ade",
  "792": "ado",
  "793": "ael",
  "794": "aff",
  "795": "afr",
  "796": "aft",
  "797": "age",
  "798": "ago",
  "799": "ail",
  "800": "aim",
  "801": "ain",
  "802": "air",
  "803": "ake",
  "804": "ala",
  "805": "alb",
  "806": "ald",
  "807": "ale",
  "808": "ali",
  "809": "all",
  "810": "als",
  "811": "ama",
  "812": "ame",
  "813": "amp",
  "814": "ana",
  "815": "and",
  "816": "ane",
  "817": "ang",
  "818": "ank",
  "819": "ann",
  "820": "ano",
  "821": "ans",
  "822": "ant",
  "823": "any",
  "824": "app",
  "825": "apt",
  "826": "ara",
  "827": "ard",
  "828": "are",
  "829": "arg",
  "830": "ari",
  "831": "ark",
  "832": "arm",
  "833": "arr",
  "834": "ars",
  "835": "art",
  "836": "ary",
  "837": "ase",
  "838": "ash",
  "839": "ass",
  "840": "ast",
  "841": "ata",
  "842": "ate",
  "843": "ath",
  "844": "atl",
  "845": "ats",
  "846": "att",
  "847": "aud",
  "848": "aur",
  "849": "aut",
  "850": "ave",
  "851": "awa",
  "852": "ays",
  "853": "bac",
  "854": "bad",
  "855": "bal",
  "856": "ban",
  "857": "bar",
  "858": "bas",
  "859": "bat",
  "860": "bay",
  "861": "bec",
  "862": "bed",
  "863": "beg",
  "864": "bel",
  "865": "ben",
  "866": "ber",
  "867": "bet",
  "868": "bey",
  "869": "bia",
  "870": "big",
  "871": "bil",
  "872": "bin",
  "873": "bir",
  "874": "bit",
  "875": "ble",
  "876": "blo",
  "877": "bly",
  "878": "bol",
  "879": "bom",
  "880": "bon",
  "881": "bor",
  "882": "bot",
  "883": "bow",
  "884": "box",
  "885": "boy",
  "886": "bre",
  "887": "bro",
  "888": "bud",
  "889": "bul",
  "890": "bur",
  "891": "bus",
  "892": "but",
  "893": "cab",
  "894": "cal",
  "895": "cam",
  "896": "can",
  "897": "cap",
  "898": "car",
  "899": "cas",
  "900": "cat",
  "901": "ced",
  "902": "cel",
  "903": "cer",
  "904": "ces",
  "905": "che",
  "906": "cho",
  "907": "chr",
  "908": "cil",
  "909": "cin",
  "910": "cir",
  "911": "cis",
  "912": "cit",
  "913": "civ",
  "914": "cle",
  "915": "clo",
  "916": "co-",
  "917": "col",
  "918": "com",
  "919": "con",
  "920": "cop",
  "921": "cor",
  "922": "cou",
  "923": "cre",
  "924": "cro",
  "925": "cru",
  "926": "cts",
  "927": "cul",
  "928": "cup",
  "929": "cur",
  "930": "cut",
  "931": "dam",
  "932": "dan",
  "933": "dar",
  "934": "dav",
  "935": "day",
  "936": "dec",
  "937": "ded",
  "938": "def",
  "939": "del",
  "940": "den",
  "941": "dep",
  "942": "der",
  "943": "des",
  "944": "did",
  "945": "die",
  "946": "dif",
  "947": "dig",
  "948": "dis",
  "949": "div",
  "950": "dle",
  "951": "doc",
  "952": "dom",
  "953": "don",
  "954": "dor",
  "955": "dou",
  "956": "dre",
  "957": "dro",
  "958": "due",
  "959": "dun",
  "960": "dut",
  "961": "dvd",
  "962": "ear",
  "963": "eas",
  "964": "een",
  "965": "ele",
  "966": "ell",
  "967": "els",
  "968": "ely",
  "969": "emp",
  "970": "ems",
  "971": "ena",
  "972": "enc",
  "973": "end",
  "974": "ene",
  "975": "eng",
  "976": "ens",
  "977": "ent",
  "978": "equ",
  "979": "era",
  "980": "ers",
  "981": "ery",
  "982": "ese",
  "983": "ess",
  "984": "est",
  "985": "eth",
  "986": "ets",
  "987": "ety",
  "988": "exe",
  "989": "exp",
  "990": "ext",
  "991": "fac",
  "992": "fam",
  "993": "fan",
  "994": "far",
  "995": "fav",
  "996": "fed",
  "997": "fel",
  "998": "fem",
  "999": "fer",
  "1000": "few",
  "1001": "fic",
  "1002": "fif",
  "1003": "fig",
  "1004": "fil",
  "1005": "fin",
  "1006": "fir",
  "1007": "fle",
  "1008": "flo",
  "1009": "flu",
  "1010": "fly",
  "1011": "foc",
  "1012": "fol",
  "1013": "for",
  "1014": "fre",
  "1015": "fri",
  "1016": "ful",
  "1017": "fun",
  "1018": "fur",
  "1019": "fut",
  "1020": "gal",
  "1021": "gar",
  "1022": "gas",
  "1023": "ged",
  "1024": "gen",
  "1025": "geo",
  "1026": "ger",
  "1027": "ges",
  "1028": "get",
  "1029": "ght",
  "1030": "gin",
  "1031": "gir",
  "1032": "giv",
  "1033": "glo",
  "1034": "god",
  "1035": "gon",
  "1036": "gor",
  "1037": "got",
  "1038": "gre",
  "1039": "gro",
  "1040": "gun",
  "1041": "hab",
  "1042": "had",
  "1043": "hal",
  "1044": "ham",
  "1045": "han",
  "1046": "hap",
  "1047": "har",
  "1048": "has",
  "1049": "hav",
  "1050": "hed",
  "1051": "hel",
  "1052": "hen",
  "1053": "her",
  "1054": "hes",
  "1055": "hib",
  "1056": "hic",
  "1057": "hig",
  "1058": "him",
  "1059": "hip",
  "1060": "his",
  "1061": "hit",
  "1062": "hol",
  "1063": "hom",
  "1064": "hon",
  "1065": "hop",
  "1066": "hor",
  "1067": "hot",
  "1068": "hou",
  "1069": "how",
  "1070": "htt",
  "1071": "hum",
  "1072": "hun",
  "1073": "hur",
  "1074": "hus",
  "1075": "ial",
  "1076": "iam",
  "1077": "ian",
  "1078": "ica",
  "1079": "ice",
  "1080": "ich",
  "1081": "ick",
  "1082": "ico",
  "1083": "ics",
  "1084": "ict",
  "1085": "ida",
  "1086": "ide",
  "1087": "ids",
  "1088": "ied",
  "1089": "ief",
  "1090": "iel",
  "1091": "ier",
  "1092": "ies",
  "1093": "iff",
  "1094": "ify",
  "1095": "igh",
  "1096": "ign",
  "1097": "igr",
  "1098": "iii",
  "1099": "ild",
  "1100": "ile",
  "1101": "ill",
  "1102": "ilt",
  "1103": "ily",
  "1104": "ime",
  "1105": "imp",
  "1106": "ina",
  "1107": "inc",
  "1108": "ind",
  "1109": "ine",
  "1110": "ing",
  "1111": "inj",
  "1112": "ink",
  "1113": "inn",
  "1114": "ino",
  "1115": "ins",
  "1116": "int",
  "1117": "inv",
  "1118": "ion",
  "1119": "ior",
  "1120": "ipp",
  "1121": "ipt",
  "1122": "ira",
  "1123": "ire",
  "1124": "isa",
  "1125": "ise",
  "1126": "ish",
  "1127": "isl",
  "1128": "ism",
  "1129": "iss",
  "1130": "ist",
  "1131": "ite",
  "1132": "ith",
  "1133": "its",
  "1134": "ity",
  "1135": "itz",
  "1136": "ium",
  "1137": "ius",
  "1138": "ive",
  "1139": "ize",
  "1140": "jan",
  "1141": "jap",
  "1142": "jer",
  "1143": "jew",
  "1144": "jim",
  "1145": "jor",
  "1146": "jud",
  "1147": "jun",
  "1148": "kar",
  "1149": "ked",
  "1150": "ken",
  "1151": "ker",
  "1152": "ket",
  "1153": "key",
  "1154": "kin",
  "1155": "kit",
  "1156": "lab",
  "1157": "lad",
  "1158": "lan",
  "1159": "lap",
  "1160": "lar",
  "1161": "lat",
  "1162": "law",
  "1163": "lay",
  "1164": "led",
  "1165": "lee",
  "1166": "leg",
  "1167": "len",
  "1168": "ler",
  "1169": "les",
  "1170": "let",
  "1171": "ley",
  "1172": "lic",
  "1173": "lie",
  "1174": "lif",
  "1175": "lim",
  "1176": "lin",
  "1177": "lit",
  "1178": "liv",
  "1179": "loc",
  "1180": "log",
  "1181": "lon",
  "1182": "lor",
  "1183": "los",
  "1184": "lot",
  "1185": "lou",
  "1186": "low",
  "1187": "loy",
  "1188": "mac",
  "1189": "mad",
  "1190": "mag",
  "1191": "mal",
  "1192": "man",
  "1193": "map",
  "1194": "mar",
  "1195": "mas",
  "1196": "mat",
  "1197": "may",
  "1198": "med",
  "1199": "mel",
  "1200": "mem",
  "1201": "men",
  "1202": "mer",
  "1203": "mes",
  "1204": "met",
  "1205": "mex",
  "1206": "mic",
  "1207": "mid",
  "1208": "mil",
  "1209": "min",
  "1210": "mir",
  "1211": "mis",
  "1212": "mit",
  "1213": "mix",
  "1214": "mol",
  "1215": "mon",
  "1216": "mor",
  "1217": "mot",
  "1218": "mou",
  "1219": "mov",
  "1220": "mun",
  "1221": "mur",
  "1222": "mus",
  "1223": "nal",
  "1224": "nam",
  "1225": "nar",
  "1226": "nat",
  "1227": "nav",
  "1228": "ned",
  "1229": "nel",
  "1230": "ner",
  "1231": "nes",
  "1232": "net",
  "1233": "new",
  "1234": "nex",
  "1235": "ney",
  "1236": "nia",
  "1237": "nic",
  "1238": "nis",
  "1239": "nom",
  "1240": "non",
  "1241": "nor",
  "1242": "not",
  "1243": "nov",
  "1244": "now",
  "1245": "num",
  "1246": "ock",
  "1247": "ode",
  "1248": "off",
  "1249": "oks",
  "1250": "ola",
  "1251": "old",
  "1252": "olf",
  "1253": "ona",
  "1254": "ond",
  "1255": "one",
  "1256": "ong",
  "1257": "ons",
  "1258": "ont",
  "1259": "ony",
  "1260": "ood",
  "1261": "ool",
  "1262": "ops",
  "1263": "opt",
  "1264": "ord",
  "1265": "ore",
  "1266": "org",
  "1267": "ors",
  "1268": "ort",
  "1269": "ory",
  "1270": "ose",
  "1271": "ost",
  "1272": "ota",
  "1273": "ots",
  "1274": "oun",
  "1275": "our",
  "1276": "ous",
  "1277": "out",
  "1278": "own",
  "1279": "pac",
  "1280": "pal",
  "1281": "pan",
  "1282": "par",
  "1283": "pat",
  "1284": "pay",
  "1285": "ped",
  "1286": "pen",
  "1287": "per",
  "1288": "pet",
  "1289": "pho",
  "1290": "phy",
  "1291": "pie",
  "1292": "pil",
  "1293": "pit",
  "1294": "ple",
  "1295": "ply",
  "1296": "pol",
  "1297": "pon",
  "1298": "pop",
  "1299": "por",
  "1300": "pos",
  "1301": "pot",
  "1302": "pov",
  "1303": "pow",
  "1304": "pre",
  "1305": "pri",
  "1306": "pro",
  "1307": "psy",
  "1308": "pun",
  "1309": "pur",
  "1310": "put",
  "1311": "que",
  "1312": "rac",
  "1313": "rad",
  "1314": "ram",
  "1315": "ran",
  "1316": "rap",
  "1317": "ray",
  "1318": "re-",
  "1319": "red",
  "1320": "ree",
  "1321": "ref",
  "1322": "reg",
  "1323": "rel",
  "1324": "ren",
  "1325": "res",
  "1326": "ret",
  "1327": "rev",
  "1328": "ric",
  "1329": "rid",
  "1330": "ril",
  "1331": "ris",
  "1332": "rit",
  "1333": "riv",
  "1334": "rol",
  "1335": "rom",
  "1336": "ron",
  "1337": "ror",
  "1338": "rou",
  "1339": "row",
  "1340": "roy",
  "1341": "rug",
  "1342": "rul",
  "1343": "run",
  "1344": "rup",
  "1345": "rus",
  "1346": "saf",
  "1347": "sal",
  "1348": "sam",
  "1349": "san",
  "1350": "sar",
  "1351": "sat",
  "1352": "sav",
  "1353": "saw",
  "1354": "say",
  "1355": "sch",
  "1356": "sci",
  "1357": "sco",
  "1358": "scr",
  "1359": "sea",
  "1360": "sed",
  "1361": "see",
  "1362": "sel",
  "1363": "sem",
  "1364": "sen",
  "1365": "ser",
  "1366": "ses",
  "1367": "set",
  "1368": "sex",
  "1369": "sey",
  "1370": "she",
  "1371": "sho",
  "1372": "sil",
  "1373": "sim",
  "1374": "sir",
  "1375": "sis",
  "1376": "sit",
  "1377": "six",
  "1378": "sky",
  "1379": "slo",
  "1380": "sof",
  "1381": "sol",
  "1382": "son",
  "1383": "sou",
  "1384": "spe",
  "1385": "spr",
  "1386": "squ",
  "1387": "ste",
  "1388": "str",
  "1389": "sty",
  "1390": "sub",
  "1391": "suc",
  "1392": "suf",
  "1393": "sug",
  "1394": "sum",
  "1395": "sun",
  "1396": "sup",
  "1397": "sur",
  "1398": "sus",
  "1399": "syl",
  "1400": "sym",
  "1401": "syn",
  "1402": "tak",
  "1403": "tal",
  "1404": "tar",
  "1405": "tas",
  "1406": "tax",
  "1407": "tay",
  "1408": "ted",
  "1409": "tee",
  "1410": "tem",
  "1411": "ten",
  "1412": "ter",
  "1413": "tex",
  "1414": "the",
  "1415": "ths",
  "1416": "tic",
  "1417": "tim",
  "1418": "tit",
  "1419": "tle",
  "1420": "tom",
  "1421": "ton",
  "1422": "too",
  "1423": "top",
  "1424": "tor",
  "1425": "tra",
  "1426": "tre",
  "1427": "tro",
  "1428": "tru",
  "1429": "try",
  "1430": "tun",
  "1431": "tur",
  "1432": "two",
  "1433": "typ",
  "1434": "tyu",
  "1435": "ual",
  "1436": "uch",
  "1437": "uck",
  "1438": "ude",
  "1439": "uel",
  "1440": "ues",
  "1441": "ula",
  "1442": "ult",
  "1443": "ume",
  "1444": "ump",
  "1445": "und",
  "1446": "ung",
  "1447": "unt",
  "1448": "ura",
  "1449": "ure",
  "1450": "uri",
  "1451": "urn",
  "1452": "uro",
  "1453": "ury",
  "1454": "usa",
  "1455": "use",
  "1456": "uss",
  "1457": "ute",
  "1458": "val",
  "1459": "van",
  "1460": "var",
  "1461": "ved",
  "1462": "vel",
  "1463": "ven",
  "1464": "ver",
  "1465": "ves",
  "1466": "vey",
  "1467": "via",
  "1468": "vic",
  "1469": "vie",
  "1470": "vil",
  "1471": "vin",
  "1472": "vir",
  "1473": "vis",
  "1474": "voc",
  "1475": "vol",
  "1476": "von",
  "1477": "vot",
  "1478": "wal",
  "1479": "wan",
  "1480": "war",
  "1481": "was",
  "1482": "wat",
  "1483": "way",
  "1484": "web",
  "1485": "wel",
  "1486": "wer",
  "1487": "wes",
  "1488": "whe",
  "1489": "who",
  "1490": "wik",
  "1491": "wil",
  "1492": "win",
  "1493": "wis",
  "1494": "wom",
  "1495": "won",
  "1496": "wor",
  "1497": "wro",
  "1498": "www",
  "1499": "xim",
  "1500": "xix",
  "1501": "xvi",
  "1502": "xxi",
  "1503": "ymp",
  "1504": "yor",
  "1505": "you",
  "1506": "ага",
  "1507": "ада",
  "1508": "ака",
  "1509": "ала",
  "1510": "але",
  "1511": "али",
  "1512": "ало",
  "1513": "аль",
  "1514": "ами",
  "1515": "ана",
  "1516": "анг",
  "1517": "ане",
  "1518": "ани",
  "1519": "ано",
  "1520": "ант",
  "1521": "аня",
  "1522": "ара",
  "1523": "аре",
  "1524": "ари",
  "1525": "аро",
  "1526": "ата",
  "1527": "ать",
  "1528": "бай",
  "1529": "бал",
  "1530": "бан",
  "1531": "бар",
  "1532": "бас",
  "1533": "бах",
  "1534": "баш",
  "1535": "бая",
  "1536": "бед",
  "1537": "без",
  "1538": "бей",
  "1539": "бек",
  "1540": "бел",
  "1541": "бен",
  "1542": "бер",
  "1543": "бес",
  "1544": "бет",
  "1545": "биз",
  "1546": "бил",
  "1547": "бин",
  "1548": "бир",
  "1549": "бит",
  "1550": "бка",
  "1551": "бке",
  "1552": "бки",
  "1553": "бку",
  "1554": "бла",
  "1555": "бле",
  "1556": "бли",
  "1557": "бло",
  "1558": "блу",
  "1559": "блю",
  "1560": "бля",
  "1561": "бно",
  "1562": "бов",
  "1563": "бог",
  "1564": "бое",
  "1565": "бои",
  "1566": "бой",
  "1567": "бок",
  "1568": "бол",
  "1569": "бом",
  "1570": "бон",
  "1571": "бор",
  "1572": "бот",
  "1573": "бою",
  "1574": "боя",
  "1575": "бра",
  "1576": "бре",
  "1577": "бри",
  "1578": "бро",
  "1579": "брь",
  "1580": "брю",
  "1581": "бря",
  "1582": "буд",
  "1583": "бук",
  "1584": "бур",
  "1585": "бую",
  "1586": "бые",
  "1587": "бый",
  "1588": "был",
  "1589": "бым",
  "1590": "бых",
  "1591": "бью",
  "1592": "бэк",
  "1593": "вав",
  "1594": "вае",
  "1595": "важ",
  "1596": "вай",
  "1597": "вал",
  "1598": "вам",
  "1599": "ван",
  "1600": "вар",
  "1601": "вас",
  "1602": "вах",
  "1603": "ваш",
  "1604": "ваю",
  "1605": "вая",
  "1606": "вед",
  "1607": "вее",
  "1608": "веж",
  "1609": "вез",
  "1610": "вей",
  "1611": "век",
  "1612": "вел",
  "1613": "вен",
  "1614": "вер",
  "1615": "вес",
  "1616": "вет",
  "1617": "вец",
  "1618": "вещ",
  "1619": "вза",
  "1620": "взя",
  "1621": "виа",
  "1622": "вив",
  "1623": "вид",
  "1624": "виз",
  "1625": "вии",
  "1626": "вил",
  "1627": "вин",
  "1628": "вит",
  "1629": "вич",
  "1630": "вия",
  "1631": "вку",
  "1632": "вла",
  "1633": "вле",
  "1634": "вли",
  "1635": "вля",
  "1636": "вме",
  "1637": "вне",
  "1638": "вни",
  "1639": "вно",
  "1640": "вну",
  "1641": "во-",
  "1642": "вов",
  "1643": "вод",
  "1644": "вое",
  "1645": "воз",
  "1646": "вои",
  "1647": "вой",
  "1648": "вок",
  "1649": "вол",
  "1650": "вом",
  "1651": "вон",
  "1652": "вор",
  "1653": "вос",
  "1654": "вот",
  "1655": "впи",
  "1656": "вра",
  "1657": "вре",
  "1658": "вру",
  "1659": "все",
  "1660": "всх",
  "1661": "всю",
  "1662": "вся",
  "1663": "всё",
  "1664": "вто",
  "1665": "вую",
  "1666": "вши",
  "1667": "вые",
  "1668": "выз",
  "1669": "вый",
  "1670": "вым",
  "1671": "выр",
  "1672": "выс",
  "1673": "вых",
  "1674": "выя",
  "1675": "вью",
  "1676": "вяз",
  "1677": "вят",
  "1678": "вёл",
  "1679": "вёр",
  "1680": "гад",
  "1681": "газ",
  "1682": "гай",
  "1683": "гал",
  "1684": "гам",
  "1685": "ган",
  "1686": "гар",
  "1687": "гах",
  "1688": "гаю",
  "1689": "гая",
  "1690": "гда",
  "1691": "где",
  "1692": "гее",
  "1693": "гей",
  "1694": "ген",
  "1695": "гер",
  "1696": "гиб",
  "1697": "гии",
  "1698": "гий",
  "1699": "гим",
  "1700": "гин",
  "1701": "гип",
  "1702": "гия",
  "1703": "гка",
  "1704": "гла",
  "1705": "гле",
  "1706": "гли",
  "1707": "гло",
  "1708": "глу",
  "1709": "гля",
  "1710": "гна",
  "1711": "гне",
  "1712": "гно",
  "1713": "гну",
  "1714": "гов",
  "1715": "год",
  "1716": "гой",
  "1717": "гол",
  "1718": "гом",
  "1719": "гон",
  "1720": "гор",
  "1721": "гос",
  "1722": "гра",
  "1723": "гре",
  "1724": "гри",
  "1725": "гро",
  "1726": "гру",
  "1727": "гры",
  "1728": "гря",
  "1729": "губ",
  "1730": "дав",
  "1731": "дай",
  "1732": "дал",
  "1733": "дам",
  "1734": "дан",
  "1735": "дар",
  "1736": "дая",
  "1737": "два",
  "1738": "две",
  "1739": "дви",
  "1740": "дво",
  "1741": "дву",
  "1742": "деб",
  "1743": "дев",
  "1744": "дед",
  "1745": "дей",
  "1746": "дел",
  "1747": "дем",
  "1748": "ден",
  "1749": "дер",
  "1750": "дет",
  "1751": "дея",
  "1752": "джа",
  "1753": "дже",
  "1754": "джи",
  "1755": "джо",
  "1756": "джу",
  "1757": "диа",
  "1758": "див",
  "1759": "дии",
  "1760": "дий",
  "1761": "дик",
  "1762": "дил",
  "1763": "дим",
  "1764": "дин",
  "1765": "дис",
  "1766": "дит",
  "1767": "дию",
  "1768": "дия",
  "1769": "дки",
  "1770": "дли",
  "1771": "для",
  "1772": "дми",
  "1773": "дне",
  "1774": "дни",
  "1775": "дно",
  "1776": "дня",
  "1777": "доб",
  "1778": "дов",
  "1779": "дое",
  "1780": "дож",
  "1781": "дой",
  "1782": "док",
  "1783": "дол",
  "1784": "дом",
  "1785": "дон",
  "1786": "дор",
  "1787": "дох",
  "1788": "дра",
  "1789": "дре",
  "1790": "дри",
  "1791": "дро",
  "1792": "дру",
  "1793": "дря",
  "1794": "дум",
  "1795": "дур",
  "1796": "дут",
  "1797": "дух",
  "1798": "душ",
  "1799": "дую",
  "1800": "дые",
  "1801": "дым",
  "1802": "дых",
  "1803": "дья",
  "1804": "дят",
  "1805": "дём",
  "1806": "дёр",
  "1807": "дёт",
  "1808": "ева",
  "1809": "евг",
  "1810": "его",
  "1811": "еди",
  "1812": "еду",
  "1813": "еже",
  "1814": "езд",
  "1815": "ела",
  "1816": "еле",
  "1817": "ели",
  "1818": "ело",
  "1819": "ель",
  "1820": "емо",
  "1821": "ему",
  "1822": "ена",
  "1823": "ени",
  "1824": "ено",
  "1825": "ены",
  "1826": "ень",
  "1827": "епи",
  "1828": "ера",
  "1829": "ере",
  "1830": "ери",
  "1831": "еро",
  "1832": "еру",
  "1833": "еры",
  "1834": "ета",
  "1835": "ете",
  "1836": "ети",
  "1837": "еты",
  "1838": "еть",
  "1839": "еха",
  "1840": "ехи",
  "1841": "ешь",
  "1842": "еще",
  "1843": "ещё",
  "1844": "жав",
  "1845": "жай",
  "1846": "жал",
  "1847": "жан",
  "1848": "жар",
  "1849": "жая",
  "1850": "жда",
  "1851": "жде",
  "1852": "жди",
  "1853": "жду",
  "1854": "жды",
  "1855": "жей",
  "1856": "жел",
  "1857": "жем",
  "1858": "жен",
  "1859": "жер",
  "1860": "жет",
  "1861": "жив",
  "1862": "жид",
  "1863": "жие",
  "1864": "жиз",
  "1865": "жий",
  "1866": "жил",
  "1867": "жим",
  "1868": "жит",
  "1869": "жих",
  "1870": "жка",
  "1871": "жке",
  "1872": "жки",
  "1873": "жку",
  "1874": "жно",
  "1875": "жур",
  "1876": "жут",
  "1877": "жён",
  "1878": "зав",
  "1879": "зад",
  "1880": "заж",
  "1881": "зай",
  "1882": "зак",
  "1883": "зал",
  "1884": "зам",
  "1885": "зан",
  "1886": "зап",
  "1887": "зар",
  "1888": "зас",
  "1889": "зат",
  "1890": "зах",
  "1891": "зая",
  "1892": "зве",
  "1893": "зво",
  "1894": "зву",
  "1895": "зда",
  "1896": "зде",
  "1897": "зей",
  "1898": "зел",
  "1899": "зем",
  "1900": "зен",
  "1901": "зер",
  "1902": "зии",
  "1903": "зил",
  "1904": "зим",
  "1905": "зин",
  "1906": "зия",
  "1907": "зла",
  "1908": "зли",
  "1909": "зло",
  "1910": "зма",
  "1911": "зме",
  "1912": "зна",
  "1913": "зов",
  "1914": "зом",
  "1915": "зон",
  "1916": "зор",
  "1917": "зре",
  "1918": "зри",
  "1919": "зря",
  "1920": "ибо",
  "1921": "ива",
  "1922": "игр",
  "1923": "иде",
  "1924": "иди",
  "1925": "иду",
  "1926": "изи",
  "1927": "изм",
  "1928": "изо",
  "1929": "изу",
  "1930": "ила",
  "1931": "или",
  "1932": "иль",
  "1933": "име",
  "1934": "ими",
  "1935": "имо",
  "1936": "иму",
  "1937": "имя",
  "1938": "ина",
  "1939": "ино",
  "1940": "ира",
  "1941": "иро",
  "1942": "иск",
  "1943": "ита",
  "1944": "ите",
  "1945": "ито",
  "1946": "ить",
  "1947": "ичи",
  "1948": "йся",
  "1949": "йте",
  "1950": "йти",
  "1951": "кав",
  "1952": "кад",
  "1953": "каж",
  "1954": "каз",
  "1955": "кай",
  "1956": "как",
  "1957": "кал",
  "1958": "кам",
  "1959": "кан",
  "1960": "кап",
  "1961": "кар",
  "1962": "кас",
  "1963": "кат",
  "1964": "ках",
  "1965": "каю",
  "1966": "кая",
  "1967": "ква",
  "1968": "кви",
  "1969": "кей",
  "1970": "кем",
  "1971": "кен",
  "1972": "кер",
  "1973": "кет",
  "1974": "кив",
  "1975": "кие",
  "1976": "кий",
  "1977": "ким",
  "1978": "кин",
  "1979": "кир",
  "1980": "ких",
  "1981": "кла",
  "1982": "кле",
  "1983": "кли",
  "1984": "кло",
  "1985": "клу",
  "1986": "клы",
  "1987": "клю",
  "1988": "кля",
  "1989": "кни",
  "1990": "кно",
  "1991": "кну",
  "1992": "кня",
  "1993": "ков",
  "1994": "ког",
  "1995": "код",
  "1996": "кое",
  "1997": "кой",
  "1998": "кол",
  "1999": "ком",
  "2000": "кон",
  "2001": "кор",
  "2002": "кос",
  "2003": "кот",
  "2004": "кош",
  "2005": "кра",
  "2006": "кре",
  "2007": "кри",
  "2008": "кро",
  "2009": "кру",
  "2010": "кры",
  "2011": "кса",
  "2012": "кси",
  "2013": "кт-",
  "2014": "кти",
  "2015": "кто",
  "2016": "куз",
  "2017": "кун",
  "2018": "куп",
  "2019": "кур",
  "2020": "кус",
  "2021": "кух",
  "2022": "кую",
  "2023": "лав",
  "2024": "лад",
  "2025": "лаз",
  "2026": "лай",
  "2027": "лам",
  "2028": "лан",
  "2029": "лау",
  "2030": "лая",
  "2031": "лбу",
  "2032": "лев",
  "2033": "лег",
  "2034": "лез",
  "2035": "лей",
  "2036": "лек",
  "2037": "лем",
  "2038": "лен",
  "2039": "лео",
  "2040": "лер",
  "2041": "лес",
  "2042": "лет",
  "2043": "лив",
  "2044": "лиз",
  "2045": "лии",
  "2046": "лик",
  "2047": "лил",
  "2048": "лин",
  "2049": "лип",
  "2050": "лит",
  "2051": "лиф",
  "2052": "лиц",
  "2053": "лич",
  "2054": "лиш",
  "2055": "лия",
  "2056": "лка",
  "2057": "лке",
  "2058": "лки",
  "2059": "лку",
  "2060": "лли",
  "2061": "лоб",
  "2062": "лов",
  "2063": "лог",
  "2064": "лой",
  "2065": "лок",
  "2066": "лом",
  "2067": "лон",
  "2068": "лор",
  "2069": "лся",
  "2070": "луи",
  "2071": "луч",
  "2072": "лую",
  "2073": "лые",
  "2074": "лый",
  "2075": "лым",
  "2076": "лых",
  "2077": "лыш",
  "2078": "льз",
  "2079": "люб",
  "2080": "люк",
  "2081": "лян",
  "2082": "ляр",
  "2083": "лёг",
  "2084": "лён",
  "2085": "лёт",
  "2086": "маг",
  "2087": "май",
  "2088": "мак",
  "2089": "мал",
  "2090": "мам",
  "2091": "ман",
  "2092": "мар",
  "2093": "мас",
  "2094": "мат",
  "2095": "мах",
  "2096": "мая",
  "2097": "мед",
  "2098": "меж",
  "2099": "мей",
  "2100": "мел",
  "2101": "мен",
  "2102": "мер",
  "2103": "мет",
  "2104": "мец",
  "2105": "меч",
  "2106": "миг",
  "2107": "мии",
  "2108": "мик",
  "2109": "мил",
  "2110": "мин",
  "2111": "мир",
  "2112": "мию",
  "2113": "мия",
  "2114": "мне",
  "2115": "мни",
  "2116": "мно",
  "2117": "мов",
  "2118": "мог",
  "2119": "мое",
  "2120": "мож",
  "2121": "моз",
  "2122": "мои",
  "2123": "мой",
  "2124": "мок",
  "2125": "мол",
  "2126": "мом",
  "2127": "мон",
  "2128": "мор",
  "2129": "мощ",
  "2130": "мою",
  "2131": "моя",
  "2132": "моё",
  "2133": "мпи",
  "2134": "мра",
  "2135": "мся",
  "2136": "муж",
  "2137": "мум",
  "2138": "мун",
  "2139": "мур",
  "2140": "мут",
  "2141": "мую",
  "2142": "мые",
  "2143": "мый",
  "2144": "мым",
  "2145": "мыс",
  "2146": "мых",
  "2147": "мыш",
  "2148": "мэт",
  "2149": "мяг",
  "2150": "мян",
  "2151": "мёр",
  "2152": "над",
  "2153": "наз",
  "2154": "наи",
  "2155": "най",
  "2156": "нал",
  "2157": "нам",
  "2158": "нан",
  "2159": "нар",
  "2160": "нас",
  "2161": "нау",
  "2162": "нах",
  "2163": "нач",
  "2164": "наш",
  "2165": "ная",
  "2166": "нев",
  "2167": "нее",
  "2168": "неж",
  "2169": "ней",
  "2170": "нем",
  "2171": "нен",
  "2172": "нер",
  "2173": "нес",
  "2174": "нет",
  "2175": "неу",
  "2176": "неф",
  "2177": "нец",
  "2178": "неё",
  "2179": "нив",
  "2180": "ние",
  "2181": "ниж",
  "2182": "низ",
  "2183": "нии",
  "2184": "ний",
  "2185": "ник",
  "2186": "нил",
  "2187": "ним",
  "2188": "нин",
  "2189": "нит",
  "2190": "них",
  "2191": "ниц",
  "2192": "нию",
  "2193": "ния",
  "2194": "нка",
  "2195": "нке",
  "2196": "нки",
  "2197": "нку",
  "2198": "нно",
  "2199": "но-",
  "2200": "нов",
  "2201": "ног",
  "2202": "ное",
  "2203": "нож",
  "2204": "ной",
  "2205": "нок",
  "2206": "ном",
  "2207": "нор",
  "2208": "нос",
  "2209": "ноя",
  "2210": "нра",
  "2211": "нув",
  "2212": "нуж",
  "2213": "нул",
  "2214": "нут",
  "2215": "ную",
  "2216": "ные",
  "2217": "ный",
  "2218": "ным",
  "2219": "ных",
  "2220": "нье",
  "2221": "нью",
  "2222": "нья",
  "2223": "нюю",
  "2224": "нял",
  "2225": "нят",
  "2226": "няя",
  "2227": "нём",
  "2228": "нёс",
  "2229": "оба",
  "2230": "обе",
  "2231": "оби",
  "2232": "обо",
  "2233": "обу",
  "2234": "объ",
  "2235": "обы",
  "2236": "обя",
  "2237": "ова",
  "2238": "ого",
  "2239": "ода",
  "2240": "оде",
  "2241": "оди",
  "2242": "одо",
  "2243": "ожи",
  "2244": "озе",
  "2245": "ока",
  "2246": "оке",
  "2247": "око",
  "2248": "оку",
  "2249": "оле",
  "2250": "оли",
  "2251": "оло",
  "2252": "оль",
  "2253": "оме",
  "2254": "она",
  "2255": "оне",
  "2256": "они",
  "2257": "оно",
  "2258": "оны",
  "2259": "опа",
  "2260": "опе",
  "2261": "опи",
  "2262": "опу",
  "2263": "ора",
  "2264": "оре",
  "2265": "ори",
  "2266": "ору",
  "2267": "оса",
  "2268": "осо",
  "2269": "ост",
  "2270": "осу",
  "2271": "ота",
  "2272": "оте",
  "2273": "оти",
  "2274": "ото",
  "2275": "оту",
  "2276": "отъ",
  "2277": "оты",
  "2278": "офи",
  "2279": "оча",
  "2280": "оче",
  "2281": "очи",
  "2282": "оши",
  "2283": "ощу",
  "2284": "пав",
  "2285": "пад",
  "2286": "пак",
  "2287": "пал",
  "2288": "пан",
  "2289": "пар",
  "2290": "пау",
  "2291": "пах",
  "2292": "пая",
  "2293": "пев",
  "2294": "пей",
  "2295": "пел",
  "2296": "пен",
  "2297": "пер",
  "2298": "пес",
  "2299": "пет",
  "2300": "печ",
  "2301": "пещ",
  "2302": "пил",
  "2303": "пин",
  "2304": "пис",
  "2305": "пит",
  "2306": "пки",
  "2307": "пку",
  "2308": "пла",
  "2309": "пле",
  "2310": "пли",
  "2311": "пло",
  "2312": "плу",
  "2313": "плы",
  "2314": "плю",
  "2315": "пля",
  "2316": "по-",
  "2317": "пов",
  "2318": "под",
  "2319": "пое",
  "2320": "поз",
  "2321": "пои",
  "2322": "пой",
  "2323": "пок",
  "2324": "пол",
  "2325": "пом",
  "2326": "поп",
  "2327": "пор",
  "2328": "пос",
  "2329": "пот",
  "2330": "пох",
  "2331": "поч",
  "2332": "поэ",
  "2333": "поя",
  "2334": "пра",
  "2335": "пре",
  "2336": "при",
  "2337": "про",
  "2338": "пру",
  "2339": "пры",
  "2340": "пря",
  "2341": "пси",
  "2342": "пти",
  "2343": "пух",
  "2344": "пыт",
  "2345": "пье",
  "2346": "пью",
  "2347": "пья",
  "2348": "пят",
  "2349": "раб",
  "2350": "рав",
  "2351": "рад",
  "2352": "раз",
  "2353": "рай",
  "2354": "рак",
  "2355": "рам",
  "2356": "ран",
  "2357": "рас",
  "2358": "рах",
  "2359": "рая",
  "2360": "рва",
  "2361": "реа",
  "2362": "реб",
  "2363": "рев",
  "2364": "ред",
  "2365": "рез",
  "2366": "рей",
  "2367": "рек",
  "2368": "рем",
  "2369": "рен",
  "2370": "рет",
  "2371": "рец",
  "2372": "реш",
  "2373": "рив",
  "2374": "рии",
  "2375": "рий",
  "2376": "рик",
  "2377": "рил",
  "2378": "рим",
  "2379": "рин",
  "2380": "рис",
  "2381": "рит",
  "2382": "рию",
  "2383": "рия",
  "2384": "рно",
  "2385": "роб",
  "2386": "ров",
  "2387": "род",
  "2388": "роз",
  "2389": "рой",
  "2390": "рок",
  "2391": "ром",
  "2392": "рон",
  "2393": "рос",
  "2394": "рот",
  "2395": "рта",
  "2396": "рту",
  "2397": "рук",
  "2398": "рус",
  "2399": "рую",
  "2400": "руя",
  "2401": "рщи",
  "2402": "рыв",
  "2403": "рые",
  "2404": "рыз",
  "2405": "рый",
  "2406": "рым",
  "2407": "рых",
  "2408": "рюк",
  "2409": "рюн",
  "2410": "ряд",
  "2411": "сад",
  "2412": "сай",
  "2413": "сал",
  "2414": "сам",
  "2415": "сан",
  "2416": "сар",
  "2417": "сах",
  "2418": "сая",
  "2419": "сби",
  "2420": "сбо",
  "2421": "сва",
  "2422": "све",
  "2423": "сви",
  "2424": "сво",
  "2425": "свя",
  "2426": "сда",
  "2427": "сев",
  "2428": "сед",
  "2429": "сей",
  "2430": "сек",
  "2431": "сел",
  "2432": "сем",
  "2433": "сен",
  "2434": "сер",
  "2435": "сет",
  "2436": "сив",
  "2437": "сид",
  "2438": "сил",
  "2439": "сим",
  "2440": "син",
  "2441": "сит",
  "2442": "сих",
  "2443": "сия",
  "2444": "ска",
  "2445": "ске",
  "2446": "ски",
  "2447": "ско",
  "2448": "ску",
  "2449": "сла",
  "2450": "сле",
  "2451": "сли",
  "2452": "сло",
  "2453": "слу",
  "2454": "слы",
  "2455": "слё",
  "2456": "сма",
  "2457": "сме",
  "2458": "сми",
  "2459": "смо",
  "2460": "сму",
  "2461": "смы",
  "2462": "сна",
  "2463": "сне",
  "2464": "сни",
  "2465": "сно",
  "2466": "сны",
  "2467": "сня",
  "2468": "соб",
  "2469": "сов",
  "2470": "соз",
  "2471": "сой",
  "2472": "сок",
  "2473": "сол",
  "2474": "сом",
  "2475": "сон",
  "2476": "сор",
  "2477": "сот",
  "2478": "сою",
  "2479": "спа",
  "2480": "спе",
  "2481": "спи",
  "2482": "спо",
  "2483": "спу",
  "2484": "спя",
  "2485": "сра",
  "2486": "сре",
  "2487": "сро",
  "2488": "сры",
  "2489": "сса",
  "2490": "ссе",
  "2491": "сси",
  "2492": "ссо",
  "2493": "сср",
  "2494": "ссу",
  "2495": "ссы",
  "2496": "ста",
  "2497": "ств",
  "2498": "сте",
  "2499": "сти",
  "2500": "сто",
  "2501": "стр",
  "2502": "сту",
  "2503": "сты",
  "2504": "сть",
  "2505": "стю",
  "2506": "стя",
  "2507": "суб",
  "2508": "суд",
  "2509": "сул",
  "2510": "сум",
  "2511": "сур",
  "2512": "сут",
  "2513": "сущ",
  "2514": "сша",
  "2515": "сын",
  "2516": "сып",
  "2517": "сэм",
  "2518": "сэр",
  "2519": "сюр",
  "2520": "сят",
  "2521": "тав",
  "2522": "тай",
  "2523": "так",
  "2524": "тал",
  "2525": "там",
  "2526": "тан",
  "2527": "тар",
  "2528": "тах",
  "2529": "тая",
  "2530": "тва",
  "2531": "тво",
  "2532": "теа",
  "2533": "тей",
  "2534": "тек",
  "2535": "тел",
  "2536": "тем",
  "2537": "тен",
  "2538": "тео",
  "2539": "тер",
  "2540": "тет",
  "2541": "тех",
  "2542": "тив",
  "2543": "тие",
  "2544": "тии",
  "2545": "тий",
  "2546": "тик",
  "2547": "тил",
  "2548": "тим",
  "2549": "тин",
  "2550": "тип",
  "2551": "тит",
  "2552": "тих",
  "2553": "тию",
  "2554": "тия",
  "2555": "тка",
  "2556": "тки",
  "2557": "тку",
  "2558": "тно",
  "2559": "тов",
  "2560": "тое",
  "2561": "той",
  "2562": "ток",
  "2563": "тол",
  "2564": "том",
  "2565": "тон",
  "2566": "топ",
  "2567": "тор",
  "2568": "тот",
  "2569": "точ",
  "2570": "тра",
  "2571": "тре",
  "2572": "три",
  "2573": "тро",
  "2574": "тру",
  "2575": "тря",
  "2576": "трё",
  "2577": "тсу",
  "2578": "тся",
  "2579": "туа",
  "2580": "туи",
  "2581": "тум",
  "2582": "тур",
  "2583": "тут",
  "2584": "тую",
  "2585": "тща",
  "2586": "тые",
  "2587": "тый",
  "2588": "тым",
  "2589": "тых",
  "2590": "тью",
  "2591": "тяж",
  "2592": "тём",
  "2593": "тёр",
  "2594": "убе",
  "2595": "уби",
  "2596": "убь",
  "2597": "ува",
  "2598": "увы",
  "2599": "уга",
  "2600": "уго",
  "2601": "уда",
  "2602": "уди",
  "2603": "удо",
  "2604": "уез",
  "2605": "ужа",
  "2606": "уже",
  "2607": "ужи",
  "2608": "узу",
  "2609": "уил",
  "2610": "уку",
  "2611": "ули",
  "2612": "уло",
  "2613": "улы",
  "2614": "уль",
  "2615": "ума",
  "2616": "уме",
  "2617": "умо",
  "2618": "уму",
  "2619": "умы",
  "2620": "уни",
  "2621": "уны",
  "2622": "упа",
  "2623": "ура",
  "2624": "уро",
  "2625": "уса",
  "2626": "уте",
  "2627": "утк",
  "2628": "уто",
  "2629": "уха",
  "2630": "ухо",
  "2631": "уча",
  "2632": "уче",
  "2633": "учи",
  "2634": "учё",
  "2635": "уши",
  "2636": "уют",
  "2637": "фак",
  "2638": "фан",
  "2639": "фар",
  "2640": "фей",
  "2641": "фер",
  "2642": "фин",
  "2643": "фио",
  "2644": "фир",
  "2645": "фла",
  "2646": "фли",
  "2647": "фло",
  "2648": "фой",
  "2649": "фон",
  "2650": "фор",
  "2651": "фра",
  "2652": "фри",
  "2653": "фут",
  "2654": "ффи",
  "2655": "фыр",
  "2656": "хай",
  "2657": "хал",
  "2658": "хам",
  "2659": "хан",
  "2660": "хар",
  "2661": "хах",
  "2662": "хая",
  "2663": "хва",
  "2664": "хво",
  "2665": "хей",
  "2666": "хен",
  "2667": "хим",
  "2668": "хих",
  "2669": "хищ",
  "2670": "хле",
  "2671": "хло",
  "2672": "хму",
  "2673": "хмы",
  "2674": "хов",
  "2675": "ход",
  "2676": "хой",
  "2677": "хол",
  "2678": "хом",
  "2679": "хот",
  "2680": "хра",
  "2681": "хри",
  "2682": "хро",
  "2683": "хру",
  "2684": "худ",
  "2685": "хун",
  "2686": "хён",
  "2687": "цам",
  "2688": "цар",
  "2689": "цве",
  "2690": "цев",
  "2691": "цей",
  "2692": "цел",
  "2693": "цем",
  "2694": "цен",
  "2695": "цеп",
  "2696": "цер",
  "2697": "ции",
  "2698": "ций",
  "2699": "цию",
  "2700": "ция",
  "2701": "цов",
  "2702": "цом",
  "2703": "чай",
  "2704": "чал",
  "2705": "чан",
  "2706": "чар",
  "2707": "час",
  "2708": "чат",
  "2709": "чаю",
  "2710": "чая",
  "2711": "чее",
  "2712": "чей",
  "2713": "чек",
  "2714": "чел",
  "2715": "чем",
  "2716": "чен",
  "2717": "чер",
  "2718": "чет",
  "2719": "чие",
  "2720": "чий",
  "2721": "чик",
  "2722": "чил",
  "2723": "чим",
  "2724": "чис",
  "2725": "чит",
  "2726": "чих",
  "2727": "чка",
  "2728": "чке",
  "2729": "чки",
  "2730": "чко",
  "2731": "чку",
  "2732": "чне",
  "2733": "чно",
  "2734": "чок",
  "2735": "чон",
  "2736": "что",
  "2737": "чув",
  "2738": "чуж",
  "2739": "чьи",
  "2740": "чья",
  "2741": "чём",
  "2742": "чёр",
  "2743": "чёт",
  "2744": "шав",
  "2745": "шаг",
  "2746": "шай",
  "2747": "шал",
  "2748": "шам",
  "2749": "шан",
  "2750": "шар",
  "2751": "шат",
  "2752": "шах",
  "2753": "шая",
  "2754": "шеб",
  "2755": "шев",
  "2756": "шед",
  "2757": "шее",
  "2758": "шей",
  "2759": "шек",
  "2760": "шел",
  "2761": "шем",
  "2762": "шен",
  "2763": "шеп",
  "2764": "шер",
  "2765": "шет",
  "2766": "шею",
  "2767": "шие",
  "2768": "ший",
  "2769": "шил",
  "2770": "шим",
  "2771": "шин",
  "2772": "шит",
  "2773": "ших",
  "2774": "шка",
  "2775": "шке",
  "2776": "шки",
  "2777": "шко",
  "2778": "шку",
  "2779": "шла",
  "2780": "шли",
  "2781": "шло",
  "2782": "шлю",
  "2783": "шля",
  "2784": "шно",
  "2785": "шок",
  "2786": "шоу",
  "2787": "шпи",
  "2788": "шта",
  "2789": "шту",
  "2790": "шум",
  "2791": "шут",
  "2792": "шую",
  "2793": "шёл",
  "2794": "щал",
  "2795": "щая",
  "2796": "щее",
  "2797": "щей",
  "2798": "щел",
  "2799": "щем",
  "2800": "щен",
  "2801": "щет",
  "2802": "щие",
  "2803": "щий",
  "2804": "щик",
  "2805": "щим",
  "2806": "щих",
  "2807": "щую",
  "2808": "ыми",
  "2809": "ьев",
  "2810": "ьте",
  "2811": "эго",
  "2812": "эки",
  "2813": "экс",
  "2814": "эле",
  "2815": "эли",
  "2816": "эль",
  "2817": "эми",
  "2818": "эмо",
  "2819": "эри",
  "2820": "эро",
  "2821": "эта",
  "2822": "эти",
  "2823": "это",
  "2824": "эту",
  "2825": "юго",
  "2826": "юно",
  "2827": "юри",
  "2828": "юсь",
  "2829": "юще",
  "2830": "ющи",
  "2831": "язы",
  "2832": "яко",
  "2833": "ями",
  "2834": "яна",
  "2835": "япо",
  "2836": "яро",
  "2837": "ясь",
  "2838": "ять",
  "2839": "ёшь",
  "2840": "----",
  "2841": "-вот",
  "2842": "-йор",
  "2843": "-как",
  "2844": "-нет",
  "2845": "-под",
  "2846": "-так",
  "2847": "-что",
  "2848": "-это",
  "2849": "able",
  "2850": "ably",
  "2851": "acad",
  "2852": "acks",
  "2853": "acqu",
  "2854": "acts",
  "2855": "adel",
  "2856": "ades",
  "2857": "aged",
  "2858": "ages",
  "2859": "agon",
  "2860": "agre",
  "2861": "ague",
  "2862": "aign",
  "2863": "ains",
  "2864": "airs",
  "2865": "aker",
  "2866": "akes",
  "2867": "alex",
  "2868": "all-",
  "2869": "ally",
  "2870": "also",
  "2871": "alth",
  "2872": "alum",
  "2873": "amed",
  "2874": "amer",
  "2875": "ames",
  "2876": "anal",
  "2877": "ance",
  "2878": "anim",
  "2879": "anta",
  "2880": "anth",
  "2881": "ants",
  "2882": "aper",
  "2883": "appe",
  "2884": "arab",
  "2885": "arch",
  "2886": "ards",
  "2887": "area",
  "2888": "army",
  "2889": "arts",
  "2890": "ased",
  "2891": "asia",
  "2892": "ason",
  "2893": "ated",
  "2894": "ateg",
  "2895": "ater",
  "2896": "ates",
  "2897": "atic",
  "2898": "ator",
  "2899": "attr",
  "2900": "audi",
  "2901": "augh",
  "2902": "ause",
  "2903": "auto",
  "2904": "aven",
  "2905": "aver",
  "2906": "aves",
  "2907": "away",
  "2908": "back",
  "2909": "ball",
  "2910": "band",
  "2911": "bank",
  "2912": "base",
  "2913": "bass",
  "2914": "batt",
  "2915": "beat",
  "2916": "been",
  "2917": "bell",
  "2918": "berg",
  "2919": "bers",
  "2920": "bert",
  "2921": "best",
  "2922": "beth",
  "2923": "betw",
  "2924": "bibl",
  "2925": "bill",
  "2926": "bish",
  "2927": "blue",
  "2928": "body",
  "2929": "book",
  "2930": "born",
  "2931": "both",
  "2932": "bour",
  "2933": "bran",
  "2934": "braz",
  "2935": "brid",
  "2936": "brit",
  "2937": "bron",
  "2938": "brou",
  "2939": "burg",
  "2940": "burn",
  "2941": "cali",
  "2942": "call",
  "2943": "came",
  "2944": "camp",
  "2945": "cand",
  "2946": "cape",
  "2947": "capt",
  "2948": "card",
  "2949": "care",
  "2950": "case",
  "2951": "cast",
  "2952": "cath",
  "2953": "ceed",
  "2954": "cell",
  "2955": "cens",
  "2956": "cent",
  "2957": "cept",
  "2958": "cess",
  "2959": "chan",
  "2960": "chap",
  "2961": "char",
  "2962": "ched",
  "2963": "chen",
  "2964": "cher",
  "2965": "ches",
  "2966": "chic",
  "2967": "chin",
  "2968": "cial",
  "2969": "cing",
  "2970": "city",
  "2971": "clar",
  "2972": "clim",
  "2973": "club",
  "2974": "cogn",
  "2975": "comb",
  "2976": "come",
  "2977": "comm",
  "2978": "comp",
  "2979": "cond",
  "2980": "conf",
  "2981": "cons",
  "2982": "cont",
  "2983": "cord",
  "2984": "cost",
  "2985": "coun",
  "2986": "cour",
  "2987": "cred",
  "2988": "cret",
  "2989": "crim",
  "2990": "crit",
  "2991": "cted",
  "2992": "ctor",
  "2993": "cult",
  "2994": "data",
  "2995": "date",
  "2996": "days",
  "2997": "dead",
  "2998": "deal",
  "2999": "defe",
  "3000": "demo",
  "3001": "desp",
  "3002": "dest",
  "3003": "died",
  "3004": "ding",
  "3005": "dire",
  "3006": "disc",
  "3007": "dist",
  "3008": "dney",
  "3009": "does",
  "3010": "down",
  "3011": "draw",
  "3012": "drum",
  "3013": "dvd-",
  "3014": "each",
  "3015": "east",
  "3016": "econ",
  "3017": "edia",
  "3018": "educ",
  "3019": "emer",
  "3020": "empt",
  "3021": "ence",
  "3022": "ency",
  "3023": "ends",
  "3024": "ener",
  "3025": "ense",
  "3026": "ents",
  "3027": "epis",
  "3028": "ered",
  "3029": "etry",
  "3030": "euro",
  "3031": "even",
  "3032": "ever",
  "3033": "exam",
  "3034": "expl",
  "3035": "face",
  "3036": "fact",
  "3037": "fail",
  "3038": "fair",
  "3039": "fall",
  "3040": "farm",
  "3041": "feat",
  "3042": "febr",
  "3043": "fect",
  "3044": "fest",
  "3045": "film",
  "3046": "find",
  "3047": "fire",
  "3048": "five",
  "3049": "flor",
  "3050": "flow",
  "3051": "food",
  "3052": "foot",
  "3053": "ford",
  "3054": "fore",
  "3055": "form",
  "3056": "fort",
  "3057": "four",
  "3058": "fran",
  "3059": "free",
  "3060": "from",
  "3061": "full",
  "3062": "fund",
  "3063": "gall",
  "3064": "game",
  "3065": "gard",
  "3066": "gave",
  "3067": "gest",
  "3068": "gian",
  "3069": "girl",
  "3070": "goal",
  "3071": "gold",
  "3072": "good",
  "3073": "grad",
  "3074": "gram",
  "3075": "grap",
  "3076": "gree",
  "3077": "greg",
  "3078": "grow",
  "3079": "gust",
  "3080": "half",
  "3081": "hall",
  "3082": "hand",
  "3083": "hard",
  "3084": "have",
  "3085": "head",
  "3086": "heav",
  "3087": "held",
  "3088": "help",
  "3089": "here",
  "3090": "hest",
  "3091": "high",
  "3092": "hill",
  "3093": "hind",
  "3094": "hist",
  "3095": "hold",
  "3096": "home",
  "3097": "hood",
  "3098": "hosp",
  "3099": "host",
  "3100": "hous",
  "3101": "http",
  "3102": "ians",
  "3103": "ible",
  "3104": "ibut",
  "3105": "ical",
  "3106": "ican",
  "3107": "ices",
  "3108": "icip",
  "3109": "icts",
  "3110": "idae",
  "3111": "ided",
  "3112": "ides",
  "3113": "ield",
  "3114": "ient",
  "3115": "iers",
  "3116": "ific",
  "3117": "igan",
  "3118": "iger",
  "3119": "ight",
  "3120": "ilar",
  "3121": "imes",
  "3122": "inal",
  "3123": "ince",
  "3124": "incl",
  "3125": "indu",
  "3126": "ined",
  "3127": "ines",
  "3128": "ings",
  "3129": "init",
  "3130": "inst",
  "3131": "inte",
  "3132": "into",
  "3133": "ions",
  "3134": "ious",
  "3135": "iple",
  "3136": "ique",
  "3137": "iran",
  "3138": "ired",
  "3139": "isbn",
  "3140": "ised",
  "3141": "ison",
  "3142": "issu",
  "3143": "ists",
  "3144": "ital",
  "3145": "itar",
  "3146": "ited",
  "3147": "itor",
  "3148": "ival",
  "3149": "ived",
  "3150": "iver",
  "3151": "ives",
  "3152": "ivid",
  "3153": "ized",
  "3154": "jack",
  "3155": "ject",
  "3156": "john",
  "3157": "join",
  "3158": "jose",
  "3159": "jour",
  "3160": "july",
  "3161": "june",
  "3162": "just",
  "3163": "keep",
  "3164": "kill",
  "3165": "king",
  "3166": "know",
  "3167": "kore",
  "3168": "lake",
  "3169": "land",
  "3170": "last",
  "3171": "late",
  "3172": "laun",
  "3173": "lead",
  "3174": "lear",
  "3175": "lebr",
  "3176": "lect",
  "3177": "left",
  "3178": "leng",
  "3179": "less",
  "3180": "libr",
  "3181": "life",
  "3182": "like",
  "3183": "line",
  "3184": "ling",
  "3185": "lish",
  "3186": "list",
  "3187": "live",
  "3188": "long",
  "3189": "look",
  "3190": "lord",
  "3191": "loss",
  "3192": "lost",
  "3193": "love",
  "3194": "mach",
  "3195": "made",
  "3196": "main",
  "3197": "make",
  "3198": "male",
  "3199": "mand",
  "3200": "manu",
  "3201": "many",
  "3202": "mark",
  "3203": "mart",
  "3204": "mary",
  "3205": "mass",
  "3206": "mean",
  "3207": "meas",
  "3208": "medi",
  "3209": "meet",
  "3210": "ment",
  "3211": "mich",
  "3212": "migr",
  "3213": "mill",
  "3214": "ming",
  "3215": "miss",
  "3216": "mont",
  "3217": "more",
  "3218": "most",
  "3219": "moun",
  "3220": "move",
  "3221": "much",
  "3222": "mult",
  "3223": "muse",
  "3224": "must",
  "3225": "name",
  "3226": "navy",
  "3227": "near",
  "3228": "need",
  "3229": "ness",
  "3230": "news",
  "3231": "next",
  "3232": "ning",
  "3233": "non-",
  "3234": "note",
  "3235": "octo",
  "3236": "odes",
  "3237": "olic",
  "3238": "olog",
  "3239": "once",
  "3240": "ones",
  "3241": "oney",
  "3242": "only",
  "3243": "onom",
  "3244": "onto",
  "3245": "open",
  "3246": "oper",
  "3247": "ople",
  "3248": "ored",
  "3249": "orge",
  "3250": "orig",
  "3251": "osop",
  "3252": "ough",
  "3253": "ould",
  "3254": "ound",
  "3255": "ours",
  "3256": "over",
  "3257": "page",
  "3258": "pain",
  "3259": "park",
  "3260": "part",
  "3261": "pass",
  "3262": "past",
  "3263": "path",
  "3264": "paul",
  "3265": "peak",
  "3266": "pect",
  "3267": "penn",
  "3268": "peri",
  "3269": "pers",
  "3270": "phil",
  "3271": "phys",
  "3272": "pian",
  "3273": "pict",
  "3274": "plac",
  "3275": "plan",
  "3276": "plat",
  "3277": "play",
  "3278": "ples",
  "3279": "plic",
  "3280": "port",
  "3281": "poss",
  "3282": "post",
  "3283": "prem",
  "3284": "pres",
  "3285": "prim",
  "3286": "priv",
  "3287": "prof",
  "3288": "prom",
  "3289": "prov",
  "3290": "publ",
  "3291": "qual",
  "3292": "quar",
  "3293": "race",
  "3294": "rael",
  "3295": "rail",
  "3296": "rain",
  "3297": "rank",
  "3298": "read",
  "3299": "real",
  "3300": "rece",
  "3301": "redu",
  "3302": "rele",
  "3303": "rent",
  "3304": "requ",
  "3305": "rese",
  "3306": "resp",
  "3307": "ress",
  "3308": "rest",
  "3309": "reve",
  "3310": "rich",
  "3311": "rick",
  "3312": "ried",
  "3313": "ring",
  "3314": "road",
  "3315": "rock",
  "3316": "role",
  "3317": "rome",
  "3318": "room",
  "3319": "ross",
  "3320": "russ",
  "3321": "ryun",
  "3322": "said",
  "3323": "sain",
  "3324": "same",
  "3325": "sand",
  "3326": "sche",
  "3327": "scor",
  "3328": "scot",
  "3329": "scre",
  "3330": "seen",
  "3331": "sele",
  "3332": "self",
  "3333": "sent",
  "3334": "sept",
  "3335": "sequ",
  "3336": "serv",
  "3337": "sett",
  "3338": "shar",
  "3339": "ship",
  "3340": "shot",
  "3341": "show",
  "3342": "side",
  "3343": "sign",
  "3344": "sing",
  "3345": "site",
  "3346": "size",
  "3347": "soci",
  "3348": "sold",
  "3349": "some",
  "3350": "song",
  "3351": "soon",
  "3352": "sour",
  "3353": "span",
  "3354": "spec",
  "3355": "spir",
  "3356": "stad",
  "3357": "stan",
  "3358": "star",
  "3359": "stat",
  "3360": "stem",
  "3361": "step",
  "3362": "ster",
  "3363": "stit",
  "3364": "ston",
  "3365": "stop",
  "3366": "stor",
  "3367": "stra",
  "3368": "stre",
  "3369": "stru",
  "3370": "stud",
  "3371": "such",
  "3372": "sure",
  "3373": "surv",
  "3374": "swed",
  "3375": "tail",
  "3376": "tain",
  "3377": "take",
  "3378": "team",
  "3379": "tech",
  "3380": "teen",
  "3381": "tele",
  "3382": "tell",
  "3383": "term",
  "3384": "tern",
  "3385": "ters",
  "3386": "tery",
  "3387": "test",
  "3388": "text",
  "3389": "than",
  "3390": "that",
  "3391": "them",
  "3392": "then",
  "3393": "ther",
  "3394": "thew",
  "3395": "they",
  "3396": "thir",
  "3397": "this",
  "3398": "thod",
  "3399": "thom",
  "3400": "thor",
  "3401": "thre",
  "3402": "thus",
  "3403": "ties",
  "3404": "time",
  "3405": "ting",
  "3406": "toge",
  "3407": "took",
  "3408": "tour",
  "3409": "town",
  "3410": "trad",
  "3411": "trav",
  "3412": "turn",
  "3413": "type",
  "3414": "uary",
  "3415": "ular",
  "3416": "ults",
  "3417": "unit",
  "3418": "unty",
  "3419": "upon",
  "3420": "ural",
  "3421": "urch",
  "3422": "ured",
  "3423": "ures",
  "3424": "used",
  "3425": "uses",
  "3426": "utes",
  "3427": "vari",
  "3428": "vent",
  "3429": "vers",
  "3430": "vert",
  "3431": "very",
  "3432": "vice",
  "3433": "vict",
  "3434": "vide",
  "3435": "viet",
  "3436": "view",
  "3437": "vill",
  "3438": "ving",
  "3439": "viol",
  "3440": "wall",
  "3441": "want",
  "3442": "ward",
  "3443": "wash",
  "3444": "ways",
  "3445": "week",
  "3446": "well",
  "3447": "went",
  "3448": "were",
  "3449": "west",
  "3450": "what",
  "3451": "when",
  "3452": "wide",
  "3453": "wife",
  "3454": "wiki",
  "3455": "wild",
  "3456": "will",
  "3457": "wind",
  "3458": "wing",
  "3459": "winn",
  "3460": "with",
  "3461": "wood",
  "3462": "word",
  "3463": "work",
  "3464": "writ",
  "3465": "year",
  "3466": "york",
  "3467": "youn",
  "3468": "your",
  "3469": "yuri",
  "3470": "авгу",
  "3471": "авиа",
  "3472": "авто",
  "3473": "аген",
  "3474": "агре",
  "3475": "адам",
  "3476": "адре",
  "3477": "алек",
  "3478": "ался",
  "3479": "анна",
  "3480": "анти",
  "3481": "апре",
  "3482": "арти",
  "3483": "архи",
  "3484": "ассо",
  "3485": "атмо",
  "3486": "ауди",
  "3487": "афри",
  "3488": "аэро",
  "3489": "бабу",
  "3490": "бала",
  "3491": "бами",
  "3492": "бана",
  "3493": "бара",
  "3494": "баты",
  "3495": "бегу",
  "3496": "безу",
  "3497": "бело",
  "3498": "бель",
  "3499": "бере",
  "3500": "бери",
  "3501": "берт",
  "3502": "беру",
  "3503": "бесе",
  "3504": "бесс",
  "3505": "била",
  "3506": "били",
  "3507": "билл",
  "3508": "бина",
  "3509": "бира",
  "3510": "бить",
  "3511": "блей",
  "3512": "близ",
  "3513": "блин",
  "3514": "блон",
  "3515": "бова",
  "3516": "бога",
  "3517": "боги",
  "3518": "бого",
  "3519": "богу",
  "3520": "боже",
  "3521": "боле",
  "3522": "боли",
  "3523": "боло",
  "3524": "боль",
  "3525": "бора",
  "3526": "боро",
  "3527": "борь",
  "3528": "брал",
  "3529": "брас",
  "3530": "брат",
  "3531": "бред",
  "3532": "бров",
  "3533": "брон",
  "3534": "буду",
  "3535": "будь",
  "3536": "букв",
  "3537": "бума",
  "3538": "бург",
  "3539": "буты",
  "3540": "была",
  "3541": "были",
  "3542": "было",
  "3543": "быть",
  "3544": "ваем",
  "3545": "вает",
  "3546": "вала",
  "3547": "вале",
  "3548": "вали",
  "3549": "вало",
  "3550": "валь",
  "3551": "валя",
  "3552": "вами",
  "3553": "вари",
  "3554": "вато",
  "3555": "вать",
  "3556": "ваша",
  "3557": "ваше",
  "3558": "ваши",
  "3559": "вают",
  "3560": "вдво",
  "3561": "вдох",
  "3562": "веду",
  "3563": "ведь",
  "3564": "ведя",
  "3565": "века",
  "3566": "вела",
  "3567": "вели",
  "3568": "вело",
  "3569": "вена",
  "3570": "вера",
  "3571": "вери",
  "3572": "веро",
  "3573": "веру",
  "3574": "верх",
  "3575": "верю",
  "3576": "весь",
  "3577": "вече",
  "3578": "веща",
  "3579": "веще",
  "3580": "вещи",
  "3581": "вещь",
  "3582": "взор",
  "3583": "взро",
  "3584": "взры",
  "3585": "взяв",
  "3586": "взял",
  "3587": "вида",
  "3588": "виде",
  "3589": "види",
  "3590": "виду",
  "3591": "видя",
  "3592": "вижу",
  "3593": "визи",
  "3594": "вика",
  "3595": "вила",
  "3596": "вили",
  "3597": "виль",
  "3598": "вина",
  "3599": "вино",
  "3600": "вить",
  "3601": "вича",
  "3602": "вклю",
  "3603": "вкус",
  "3604": "влад",
  "3605": "влия",
  "3606": "влюб",
  "3607": "внеш",
  "3608": "вниз",
  "3609": "внов",
  "3610": "внут",
  "3611": "вого",
  "3612": "вода",
  "3613": "воде",
  "3614": "води",
  "3615": "водо",
  "3616": "воду",
  "3617": "воды",
  "3618": "водя",
  "3619": "воен",
  "3620": "возь",
  "3621": "воин",
  "3622": "воли",
  "3623": "воло",
  "3624": "воль",
  "3625": "волю",
  "3626": "воро",
  "3627": "воск",
  "3628": "вось",
  "3629": "впло",
  "3630": "врач",
  "3631": "вряд",
  "3632": "всей",
  "3633": "всем",
  "3634": "всех",
  "3635": "вски",
  "3636": "вслу",
  "3637": "вспо",
  "3638": "вспы",
  "3639": "вста",
  "3640": "всём",
  "3641": "втор",
  "3642": "вход",
  "3643": "вшая",
  "3644": "вшее",
  "3645": "вшей",
  "3646": "вшие",
  "3647": "вший",
  "3648": "вшим",
  "3649": "вших",
  "3650": "вшую",
  "3651": "выбо",
  "3652": "выда",
  "3653": "выжи",
  "3654": "вызы",
  "3655": "выки",
  "3656": "выми",
  "3657": "выну",
  "3658": "выпи",
  "3659": "выпу",
  "3660": "выра",
  "3661": "выро",
  "3662": "выру",
  "3663": "выры",
  "3664": "высо",
  "3665": "выше",
  "3666": "гада",
  "3667": "гады",
  "3668": "гает",
  "3669": "гала",
  "3670": "гали",
  "3671": "гало",
  "3672": "гами",
  "3673": "гаре",
  "3674": "гать",
  "3675": "гают",
  "3676": "гвар",
  "3677": "гель",
  "3678": "геор",
  "3679": "геро",
  "3680": "гиль",
  "3681": "гина",
  "3682": "гита",
  "3683": "глав",
  "3684": "глаз",
  "3685": "глот",
  "3686": "гнал",
  "3687": "гнев",
  "3688": "гнув",
  "3689": "гнул",
  "3690": "гово",
  "3691": "года",
  "3692": "годи",
  "3693": "году",
  "3694": "годы",
  "3695": "голо",
  "3696": "голу",
  "3697": "гора",
  "3698": "горе",
  "3699": "гори",
  "3700": "горо",
  "3701": "горы",
  "3702": "горь",
  "3703": "горя",
  "3704": "госу",
  "3705": "гото",
  "3706": "град",
  "3707": "грам",
  "3708": "гран",
  "3709": "граф",
  "3710": "грей",
  "3711": "гроз",
  "3712": "гром",
  "3713": "груз",
  "3714": "груп",
  "3715": "гряз",
  "3716": "губа",
  "3717": "губу",
  "3718": "губы",
  "3719": "гуля",
  "3720": "дабы",
  "3721": "дает",
  "3722": "даже",
  "3723": "дала",
  "3724": "дале",
  "3725": "дали",
  "3726": "даль",
  "3727": "дами",
  "3728": "дани",
  "3729": "дара",
  "3730": "дать",
  "3731": "дают",
  "3732": "двер",
  "3733": "двое",
  "3734": "двой",
  "3735": "двор",
  "3736": "двух",
  "3737": "деви",
  "3738": "дево",
  "3739": "деву",
  "3740": "девя",
  "3741": "деду",
  "3742": "дека",
  "3743": "дела",
  "3744": "деле",
  "3745": "дели",
  "3746": "дело",
  "3747": "делу",
  "3748": "дель",
  "3749": "делю",
  "3750": "деля",
  "3751": "демо",
  "3752": "дене",
  "3753": "дени",
  "3754": "день",
  "3755": "дера",
  "3756": "дере",
  "3757": "держ",
  "3758": "деся",
  "3759": "дете",
  "3760": "дети",
  "3761": "деть",
  "3762": "дешь",
  "3763": "джей",
  "3764": "джек",
  "3765": "джен",
  "3766": "джер",
  "3767": "джин",
  "3768": "джон",
  "3769": "джор",
  "3770": "джун",
  "3771": "дива",
  "3772": "дила",
  "3773": "дили",
  "3774": "диль",
  "3775": "дима",
  "3776": "дина",
  "3777": "дире",
  "3778": "дите",
  "3779": "дить",
  "3780": "дишь",
  "3781": "длин",
  "3782": "дная",
  "3783": "днев",
  "3784": "дней",
  "3785": "днем",
  "3786": "дное",
  "3787": "дной",
  "3788": "дные",
  "3789": "дный",
  "3790": "дным",
  "3791": "дных",
  "3792": "доба",
  "3793": "доби",
  "3794": "добы",
  "3795": "дова",
  "3796": "дови",
  "3797": "дово",
  "3798": "дого",
  "3799": "доку",
  "3800": "долж",
  "3801": "доли",
  "3802": "доль",
  "3803": "дома",
  "3804": "доме",
  "3805": "доми",
  "3806": "дому",
  "3807": "дона",
  "3808": "дора",
  "3809": "доро",
  "3810": "дочь",
  "3811": "древ",
  "3812": "друг",
  "3813": "друж",
  "3814": "друз",
  "3815": "дума",
  "3816": "думы",
  "3817": "дура",
  "3818": "духа",
  "3819": "душа",
  "3820": "душе",
  "3821": "души",
  "3822": "душу",
  "3823": "дыха",
  "3824": "дыша",
  "3825": "дьми",
  "3826": "дядя",
  "3827": "евич",
  "3828": "евна",
  "3829": "евре",
  "3830": "евро",
  "3831": "егор",
  "3832": "едва",
  "3833": "един",
  "3834": "езда",
  "3835": "елен",
  "3836": "елов",
  "3837": "елся",
  "3838": "емся",
  "3839": "емые",
  "3840": "емый",
  "3841": "емых",
  "3842": "ение",
  "3843": "ении",
  "3844": "ений",
  "3845": "ению",
  "3846": "ения",
  "3847": "енно",
  "3848": "енье",
  "3849": "если",
  "3850": "есте",
  "3851": "есть",
  "3852": "ется",
  "3853": "ехал",
  "3854": "жает",
  "3855": "жала",
  "3856": "жали",
  "3857": "жало",
  "3858": "жаль",
  "3859": "жать",
  "3860": "ждал",
  "3861": "ждая",
  "3862": "жден",
  "3863": "ждет",
  "3864": "ждой",
  "3865": "ждён",
  "3866": "жела",
  "3867": "жена",
  "3868": "жени",
  "3869": "жено",
  "3870": "жену",
  "3871": "жены",
  "3872": "жерт",
  "3873": "жест",
  "3874": "жешь",
  "3875": "жива",
  "3876": "живо",
  "3877": "живу",
  "3878": "жила",
  "3879": "жили",
  "3880": "жима",
  "3881": "жить",
  "3882": "жная",
  "3883": "жнее",
  "3884": "жное",
  "3885": "жной",
  "3886": "жную",
  "3887": "жные",
  "3888": "жный",
  "3889": "жным",
  "3890": "жных",
  "3891": "жусь",
  "3892": "заба",
  "3893": "заби",
  "3894": "забо",
  "3895": "забы",
  "3896": "зави",
  "3897": "заво",
  "3898": "зага",
  "3899": "зада",
  "3900": "зади",
  "3901": "зает",
  "3902": "зажи",
  "3903": "зака",
  "3904": "заки",
  "3905": "зако",
  "3906": "заку",
  "3907": "зала",
  "3908": "зале",
  "3909": "зали",
  "3910": "зало",
  "3911": "заме",
  "3912": "зами",
  "3913": "зано",
  "3914": "заня",
  "3915": "запа",
  "3916": "запи",
  "3917": "запу",
  "3918": "запя",
  "3919": "зара",
  "3920": "зары",
  "3921": "заря",
  "3922": "засу",
  "3923": "зато",
  "3924": "заты",
  "3925": "зать",
  "3926": "защи",
  "3927": "заяв",
  "3928": "звез",
  "3929": "звер",
  "3930": "звон",
  "3931": "звук",
  "3932": "звёз",
  "3933": "здра",
  "3934": "зейн",
  "3935": "зель",
  "3936": "зелё",
  "3937": "знак",
  "3938": "знал",
  "3939": "знаю",
  "3940": "зная",
  "3941": "золо",
  "3942": "зона",
  "3943": "зоне",
  "3944": "зубы",
  "3945": "иван",
  "3946": "игра",
  "3947": "игро",
  "3948": "игру",
  "3949": "игры",
  "3950": "идем",
  "3951": "идет",
  "3952": "идея",
  "3953": "идти",
  "3954": "идут",
  "3955": "идёт",
  "3956": "изба",
  "3957": "избе",
  "3958": "изве",
  "3959": "изви",
  "3960": "изда",
  "3961": "изде",
  "3962": "изма",
  "3963": "изну",
  "3964": "изра",
  "3965": "изум",
  "3966": "изуч",
  "3967": "иису",
  "3968": "иллю",
  "3969": "ился",
  "3970": "илья",
  "3971": "имел",
  "3972": "имен",
  "3973": "имею",
  "3974": "инди",
  "3975": "иной",
  "3976": "иска",
  "3977": "испа",
  "3978": "испо",
  "3979": "испу",
  "3980": "исти",
  "3981": "исто",
  "3982": "исче",
  "3983": "итак",
  "3984": "июля",
  "3985": "июня",
  "3986": "каби",
  "3987": "кает",
  "3988": "каза",
  "3989": "казы",
  "3990": "кала",
  "3991": "кали",
  "3992": "ками",
  "3993": "кана",
  "3994": "капи",
  "3995": "кара",
  "3996": "каре",
  "3997": "кари",
  "3998": "карь",
  "3999": "каса",
  "4000": "ката",
  "4001": "кате",
  "4002": "кать",
  "4003": "катя",
  "4004": "кафе",
  "4005": "каши",
  "4006": "квар",
  "4007": "киев",
  "4008": "кило",
  "4009": "кими",
  "4010": "кино",
  "4011": "кира",
  "4012": "клад",
  "4013": "клет",
  "4014": "клин",
  "4015": "клуб",
  "4016": "ключ",
  "4017": "книг",
  "4018": "кнов",
  "4019": "кнул",
  "4020": "кова",
  "4021": "ково",
  "4022": "кого",
  "4023": "кое-",
  "4024": "кожа",
  "4025": "коже",
  "4026": "кожи",
  "4027": "кожу",
  "4028": "коле",
  "4029": "коли",
  "4030": "коло",
  "4031": "коль",
  "4032": "кома",
  "4033": "коми",
  "4034": "кому",
  "4035": "коне",
  "4036": "коно",
  "4037": "конф",
  "4038": "копи",
  "4039": "кора",
  "4040": "кори",
  "4041": "коро",
  "4042": "кост",
  "4043": "кота",
  "4044": "кото",
  "4045": "кофе",
  "4046": "край",
  "4047": "крас",
  "4048": "крат",
  "4049": "краю",
  "4050": "края",
  "4051": "креп",
  "4052": "крик",
  "4053": "крис",
  "4054": "кров",
  "4055": "круг",
  "4056": "круп",
  "4057": "ктов",
  "4058": "ктор",
  "4059": "куда",
  "4060": "кула",
  "4061": "куль",
  "4062": "купи",
  "4063": "кура",
  "4064": "кури",
  "4065": "куро",
  "4066": "курс",
  "4067": "курт",
  "4068": "кусо",
  "4069": "кэро",
  "4070": "ладо",
  "4071": "лайн",
  "4072": "лами",
  "4073": "ланд",
  "4074": "лась",
  "4075": "леви",
  "4076": "лего",
  "4077": "леди",
  "4078": "ледя",
  "4079": "лежа",
  "4080": "лена",
  "4081": "лени",
  "4082": "лено",
  "4083": "лены",
  "4084": "лера",
  "4085": "лери",
  "4086": "леса",
  "4087": "лест",
  "4088": "лесу",
  "4089": "лета",
  "4090": "лети",
  "4091": "лето",
  "4092": "либо",
  "4093": "ливо",
  "4094": "лиза",
  "4095": "лили",
  "4096": "лина",
  "4097": "лист",
  "4098": "лись",
  "4099": "лить",
  "4100": "лица",
  "4101": "лице",
  "4102": "лицо",
  "4103": "лицу",
  "4104": "личи",
  "4105": "лишь",
  "4106": "лкой",
  "4107": "лова",
  "4108": "лови",
  "4109": "логи",
  "4110": "ложи",
  "4111": "локи",
  "4112": "локо",
  "4113": "лорд",
  "4114": "лось",
  "4115": "лоша",
  "4116": "лука",
  "4117": "луна",
  "4118": "лучи",
  "4119": "лыми",
  "4120": "льда",
  "4121": "льзу",
  "4122": "льзя",
  "4123": "лько",
  "4124": "льно",
  "4125": "льта",
  "4126": "люби",
  "4127": "любо",
  "4128": "любя",
  "4129": "люди",
  "4130": "людя",
  "4131": "люси",
  "4132": "люсь",
  "4133": "люци",
  "4134": "мага",
  "4135": "маги",
  "4136": "мака",
  "4137": "маки",
  "4138": "макс",
  "4139": "мала",
  "4140": "мали",
  "4141": "мало",
  "4142": "малы",
  "4143": "маль",
  "4144": "мама",
  "4145": "мами",
  "4146": "маму",
  "4147": "мамы",
  "4148": "мана",
  "4149": "мане",
  "4150": "мани",
  "4151": "мара",
  "4152": "мари",
  "4153": "марк",
  "4154": "мару",
  "4155": "марш",
  "4156": "мате",
  "4157": "мати",
  "4158": "мато",
  "4159": "мать",
  "4160": "махи",
  "4161": "маша",
  "4162": "маши",
  "4163": "меди",
  "4164": "мело",
  "4165": "мель",
  "4166": "мена",
  "4167": "мене",
  "4168": "мени",
  "4169": "мент",
  "4170": "мень",
  "4171": "меня",
  "4172": "мера",
  "4173": "мере",
  "4174": "мерз",
  "4175": "мери",
  "4176": "меро",
  "4177": "мерт",
  "4178": "мест",
  "4179": "меся",
  "4180": "мета",
  "4181": "мето",
  "4182": "меха",
  "4183": "меча",
  "4184": "мила",
  "4185": "мили",
  "4186": "мило",
  "4187": "мимо",
  "4188": "мина",
  "4189": "мини",
  "4190": "мину",
  "4191": "мира",
  "4192": "мире",
  "4193": "миро",
  "4194": "миру",
  "4195": "мисс",
  "4196": "миха",
  "4197": "миша",
  "4198": "млад",
  "4199": "мной",
  "4200": "моби",
  "4201": "моги",
  "4202": "мого",
  "4203": "могу",
  "4204": "моей",
  "4205": "моем",
  "4206": "мозг",
  "4207": "моим",
  "4208": "моих",
  "4209": "моли",
  "4210": "моло",
  "4211": "мона",
  "4212": "мони",
  "4213": "моно",
  "4214": "мора",
  "4215": "море",
  "4216": "мори",
  "4217": "моро",
  "4218": "моря",
  "4219": "моск",
  "4220": "мото",
  "4221": "мужа",
  "4222": "мужи",
  "4223": "музе",
  "4224": "музы",
  "4225": "мура",
  "4226": "мучи",
  "4227": "мыми",
  "4228": "мэри",
  "4229": "наве",
  "4230": "нави",
  "4231": "наде",
  "4232": "надо",
  "4233": "назы",
  "4234": "найл",
  "4235": "нака",
  "4236": "наки",
  "4237": "нако",
  "4238": "нала",
  "4239": "нале",
  "4240": "нали",
  "4241": "нало",
  "4242": "наме",
  "4243": "нами",
  "4244": "напа",
  "4245": "напи",
  "4246": "напу",
  "4247": "нара",
  "4248": "наро",
  "4249": "нару",
  "4250": "ната",
  "4251": "наук",
  "4252": "науч",
  "4253": "наци",
  "4254": "нацу",
  "4255": "нача",
  "4256": "начи",
  "4257": "наша",
  "4258": "наше",
  "4259": "наши",
  "4260": "нашу",
  "4261": "неба",
  "4262": "небе",
  "4263": "небо",
  "4264": "неве",
  "4265": "невы",
  "4266": "него",
  "4267": "недо",
  "4268": "неза",
  "4269": "неле",
  "4270": "нель",
  "4271": "нему",
  "4272": "нена",
  "4273": "непо",
  "4274": "нера",
  "4275": "нерв",
  "4276": "несу",
  "4277": "нета",
  "4278": "неуж",
  "4279": "нешь",
  "4280": "нией",
  "4281": "нием",
  "4282": "ниже",
  "4283": "ника",
  "4284": "нике",
  "4285": "ники",
  "4286": "нико",
  "4287": "нику",
  "4288": "нила",
  "4289": "нили",
  "4290": "нима",
  "4291": "ними",
  "4292": "нина",
  "4293": "нить",
  "4294": "ница",
  "4295": "нице",
  "4296": "ници",
  "4297": "ницу",
  "4298": "ницы",
  "4299": "нная",
  "4300": "нное",
  "4301": "нной",
  "4302": "нную",
  "4303": "нные",
  "4304": "нный",
  "4305": "нным",
  "4306": "нных",
  "4307": "нова",
  "4308": "нови",
  "4309": "ново",
  "4310": "ноги",
  "4311": "ного",
  "4312": "ногу",
  "4313": "ному",
  "4314": "нори",
  "4315": "носи",
  "4316": "нося",
  "4317": "ночи",
  "4318": "ночь",
  "4319": "нула",
  "4320": "нули",
  "4321": "нуло",
  "4322": "нусь",
  "4323": "нуть",
  "4324": "ными",
  "4325": "ныне",
  "4326": "нько",
  "4327": "ньку",
  "4328": "ньше",
  "4329": "няет",
  "4330": "няка",
  "4331": "няли",
  "4332": "нями",
  "4333": "нять",
  "4334": "обви",
  "4335": "обед",
  "4336": "обез",
  "4337": "обер",
  "4338": "обла",
  "4339": "обли",
  "4340": "обма",
  "4341": "обна",
  "4342": "обня",
  "4343": "обор",
  "4344": "обра",
  "4345": "обре",
  "4346": "обру",
  "4347": "обсу",
  "4348": "обуч",
  "4349": "обще",
  "4350": "общи",
  "4351": "объя",
  "4352": "ован",
  "4353": "огля",
  "4354": "огня",
  "4355": "огра",
  "4356": "одея",
  "4357": "один",
  "4358": "одна",
  "4359": "одни",
  "4360": "одно",
  "4361": "одну",
  "4362": "одол",
  "4363": "озна",
  "4364": "ойти",
  "4365": "оказ",
  "4366": "окна",
  "4367": "окно",
  "4368": "окну",
  "4369": "окон",
  "4370": "окра",
  "4371": "окре",
  "4372": "окру",
  "4373": "октя",
  "4374": "олег",
  "4375": "онов",
  "4376": "опас",
  "4377": "опер",
  "4378": "опла",
  "4379": "опоз",
  "4380": "опре",
  "4381": "опти",
  "4382": "опыт",
  "4383": "орал",
  "4384": "орга",
  "4385": "осве",
  "4386": "оска",
  "4387": "оско",
  "4388": "осла",
  "4389": "осно",
  "4390": "особ",
  "4391": "оста",
  "4392": "отве",
  "4393": "отда",
  "4394": "отец",
  "4395": "отзы",
  "4396": "отка",
  "4397": "отки",
  "4398": "отли",
  "4399": "отло",
  "4400": "отно",
  "4401": "отоз",
  "4402": "отом",
  "4403": "отор",
  "4404": "отпу",
  "4405": "отра",
  "4406": "отры",
  "4407": "отца",
  "4408": "отцу",
  "4409": "охот",
  "4410": "охра",
  "4411": "оцен",
  "4412": "очер",
  "4413": "очки",
  "4414": "ошиб",
  "4415": "пада",
  "4416": "пала",
  "4417": "пали",
  "4418": "пало",
  "4419": "паль",
  "4420": "памя",
  "4421": "папа",
  "4422": "пара",
  "4423": "пари",
  "4424": "парк",
  "4425": "паро",
  "4426": "парт",
  "4427": "пару",
  "4428": "пары",
  "4429": "пать",
  "4430": "педа",
  "4431": "пела",
  "4432": "пели",
  "4433": "пера",
  "4434": "пере",
  "4435": "пери",
  "4436": "перь",
  "4437": "пети",
  "4438": "петь",
  "4439": "печа",
  "4440": "пила",
  "4441": "пили",
  "4442": "пило",
  "4443": "пира",
  "4444": "пиро",
  "4445": "писа",
  "4446": "писи",
  "4447": "пись",
  "4448": "пита",
  "4449": "пить",
  "4450": "план",
  "4451": "плат",
  "4452": "плен",
  "4453": "плет",
  "4454": "плеч",
  "4455": "побе",
  "4456": "пове",
  "4457": "пови",
  "4458": "повы",
  "4459": "пога",
  "4460": "поги",
  "4461": "пого",
  "4462": "пода",
  "4463": "подо",
  "4464": "поду",
  "4465": "подъ",
  "4466": "пожи",
  "4467": "позд",
  "4468": "пози",
  "4469": "пока",
  "4470": "поки",
  "4471": "поко",
  "4472": "поку",
  "4473": "пола",
  "4474": "поле",
  "4475": "поли",
  "4476": "поло",
  "4477": "полу",
  "4478": "поль",
  "4479": "поля",
  "4480": "поме",
  "4481": "поми",
  "4482": "помо",
  "4483": "помя",
  "4484": "пони",
  "4485": "поня",
  "4486": "попа",
  "4487": "попу",
  "4488": "пора",
  "4489": "поро",
  "4490": "порт",
  "4491": "пору",
  "4492": "поры",
  "4493": "поря",
  "4494": "поса",
  "4495": "посе",
  "4496": "посо",
  "4497": "пост",
  "4498": "посу",
  "4499": "посы",
  "4500": "пота",
  "4501": "поте",
  "4502": "пото",
  "4503": "поту",
  "4504": "потя",
  "4505": "похи",
  "4506": "похо",
  "4507": "появ",
  "4508": "прав",
  "4509": "пред",
  "4510": "преж",
  "4511": "прер",
  "4512": "прид",
  "4513": "прие",
  "4514": "приз",
  "4515": "прин",
  "4516": "прия",
  "4517": "проз",
  "4518": "прой",
  "4519": "прон",
  "4520": "прос",
  "4521": "прох",
  "4522": "прош",
  "4523": "проя",
  "4524": "прям",
  "4525": "пуга",
  "4526": "пуль",
  "4527": "пунк",
  "4528": "пуст",
  "4529": "пута",
  "4530": "путе",
  "4531": "пути",
  "4532": "путь",
  "4533": "пыль",
  "4534": "пыта",
  "4535": "пыты",
  "4536": "пяти",
  "4537": "пять",
  "4538": "рабо",
  "4539": "рада",
  "4540": "ради",
  "4541": "радо",
  "4542": "раду",
  "4543": "раза",
  "4544": "разд",
  "4545": "рази",
  "4546": "разо",
  "4547": "разу",
  "4548": "разъ",
  "4549": "разы",
  "4550": "рами",
  "4551": "ране",
  "4552": "рано",
  "4553": "раны",
  "4554": "расс",
  "4555": "раст",
  "4556": "рать",
  "4557": "рачи",
  "4558": "реак",
  "4559": "ребя",
  "4560": "реги",
  "4561": "реда",
  "4562": "реди",
  "4563": "режи",
  "4564": "резу",
  "4565": "река",
  "4566": "реки",
  "4567": "рели",
  "4568": "ремя",
  "4569": "рена",
  "4570": "рене",
  "4571": "речи",
  "4572": "речь",
  "4573": "реша",
  "4574": "реши",
  "4575": "рика",
  "4576": "рила",
  "4577": "рили",
  "4578": "рина",
  "4579": "рису",
  "4580": "рита",
  "4581": "рито",
  "4582": "рить",
  "4583": "рица",
  "4584": "рова",
  "4585": "рого",
  "4586": "рода",
  "4587": "роде",
  "4588": "роди",
  "4589": "роли",
  "4590": "роль",
  "4591": "рома",
  "4592": "рона",
  "4593": "рост",
  "4594": "руба",
  "4595": "рубе",
  "4596": "руга",
  "4597": "рует",
  "4598": "рука",
  "4599": "руке",
  "4600": "руки",
  "4601": "руко",
  "4602": "руку",
  "4603": "руют",
  "4604": "рыже",
  "4605": "ряда",
  "4606": "ряды",
  "4607": "сади",
  "4608": "сайт",
  "4609": "сала",
  "4610": "сама",
  "4611": "сами",
  "4612": "само",
  "4613": "самы",
  "4614": "сара",
  "4615": "саша",
  "4616": "сбор",
  "4617": "свер",
  "4618": "свет",
  "4619": "свое",
  "4620": "свои",
  "4621": "свой",
  "4622": "свою",
  "4623": "своё",
  "4624": "себа",
  "4625": "себе",
  "4626": "себя",
  "4627": "седа",
  "4628": "села",
  "4629": "селе",
  "4630": "сели",
  "4631": "село",
  "4632": "сель",
  "4633": "семи",
  "4634": "семь",
  "4635": "сена",
  "4636": "серд",
  "4637": "сере",
  "4638": "сери",
  "4639": "серь",
  "4640": "сети",
  "4641": "сжал",
  "4642": "сидя",
  "4643": "сила",
  "4644": "сили",
  "4645": "силу",
  "4646": "силы",
  "4647": "силь",
  "4648": "сине",
  "4649": "синя",
  "4650": "сить",
  "4651": "сказ",
  "4652": "скан",
  "4653": "ская",
  "4654": "ские",
  "4655": "ский",
  "4656": "ским",
  "4657": "ских",
  "4658": "скла",
  "4659": "скло",
  "4660": "сков",
  "4661": "ское",
  "4662": "ской",
  "4663": "ском",
  "4664": "скон",
  "4665": "скор",
  "4666": "скот",
  "4667": "скре",
  "4668": "скри",
  "4669": "скры",
  "4670": "скую",
  "4671": "слав",
  "4672": "слад",
  "4673": "слег",
  "4674": "след",
  "4675": "слез",
  "4676": "слей",
  "4677": "слов",
  "4678": "слом",
  "4679": "служ",
  "4680": "слуш",
  "4681": "слыш",
  "4682": "смен",
  "4683": "смер",
  "4684": "смех",
  "4685": "смеш",
  "4686": "смея",
  "4687": "смог",
  "4688": "смот",
  "4689": "смыс",
  "4690": "снег",
  "4691": "сней",
  "4692": "сним",
  "4693": "сном",
  "4694": "снял",
  "4695": "соба",
  "4696": "собы",
  "4697": "сова",
  "4698": "сове",
  "4699": "соли",
  "4700": "солн",
  "4701": "соло",
  "4702": "солю",
  "4703": "сона",
  "4704": "сооб",
  "4705": "сосе",
  "4706": "софи",
  "4707": "соци",
  "4708": "сочи",
  "4709": "союз",
  "4710": "спал",
  "4711": "спас",
  "4712": "спек",
  "4713": "спер",
  "4714": "спит",
  "4715": "спло",
  "4716": "спол",
  "4717": "спор",
  "4718": "спра",
  "4719": "спря",
  "4720": "спут",
  "4721": "сред",
  "4722": "срок",
  "4723": "ссив",
  "4724": "ссии",
  "4725": "ссов",
  "4726": "ссср",
  "4727": "став",
  "4728": "стаи",
  "4729": "стал",
  "4730": "стан",
  "4731": "стар",
  "4732": "стая",
  "4733": "ства",
  "4734": "стве",
  "4735": "стви",
  "4736": "ство",
  "4737": "ству",
  "4738": "стей",
  "4739": "стел",
  "4740": "стем",
  "4741": "стен",
  "4742": "степ",
  "4743": "стер",
  "4744": "стив",
  "4745": "стил",
  "4746": "стин",
  "4747": "стка",
  "4748": "стки",
  "4749": "стно",
  "4750": "стов",
  "4751": "стои",
  "4752": "стой",
  "4753": "сток",
  "4754": "стол",
  "4755": "стом",
  "4756": "стон",
  "4757": "стоп",
  "4758": "стоя",
  "4759": "стра",
  "4760": "стре",
  "4761": "стри",
  "4762": "стро",
  "4763": "стру",
  "4764": "стры",
  "4765": "стря",
  "4766": "стук",
  "4767": "стул",
  "4768": "ступ",
  "4769": "стую",
  "4770": "стые",
  "4771": "стый",
  "4772": "стым",
  "4773": "стых",
  "4774": "стье",
  "4775": "стью",
  "4776": "стья",
  "4777": "стям",
  "4778": "стях",
  "4779": "суда",
  "4780": "судь",
  "4781": "судя",
  "4782": "суль",
  "4783": "суро",
  "4784": "сути",
  "4785": "суть",
  "4786": "сухо",
  "4787": "суще",
  "4788": "сфер",
  "4789": "сцен",
  "4790": "счет",
  "4791": "счит",
  "4792": "счёт",
  "4793": "сына",
  "4794": "сыпа",
  "4795": "сюда",
  "4796": "тает",
  "4797": "таин",
  "4798": "таки",
  "4799": "тала",
  "4800": "тали",
  "4801": "таль",
  "4802": "тами",
  "4803": "тана",
  "4804": "тара",
  "4805": "таре",
  "4806": "тать",
  "4807": "тащи",
  "4808": "твер",
  "4809": "твое",
  "4810": "твои",
  "4811": "твой",
  "4812": "твор",
  "4813": "твою",
  "4814": "твоя",
  "4815": "твоё",
  "4816": "тебе",
  "4817": "тебя",
  "4818": "тела",
  "4819": "теле",
  "4820": "тели",
  "4821": "тело",
  "4822": "телу",
  "4823": "тель",
  "4824": "телю",
  "4825": "теля",
  "4826": "тема",
  "4827": "тему",
  "4828": "тени",
  "4829": "тень",
  "4830": "тера",
  "4831": "тере",
  "4832": "тери",
  "4833": "терп",
  "4834": "теря",
  "4835": "тесь",
  "4836": "тета",
  "4837": "тием",
  "4838": "тика",
  "4839": "тики",
  "4840": "тила",
  "4841": "тили",
  "4842": "тимо",
  "4843": "тина",
  "4844": "типа",
  "4845": "тира",
  "4846": "титу",
  "4847": "тить",
  "4848": "тихи",
  "4849": "тихо",
  "4850": "тише",
  "4851": "тиши",
  "4852": "тная",
  "4853": "тник",
  "4854": "тное",
  "4855": "тной",
  "4856": "тном",
  "4857": "тную",
  "4858": "тные",
  "4859": "тный",
  "4860": "тным",
  "4861": "тных",
  "4862": "това",
  "4863": "того",
  "4864": "тоже",
  "4865": "толи",
  "4866": "толк",
  "4867": "тома",
  "4868": "тому",
  "4869": "тона",
  "4870": "тони",
  "4871": "тора",
  "4872": "торо",
  "4873": "торы",
  "4874": "трав",
  "4875": "тран",
  "4876": "трен",
  "4877": "трех",
  "4878": "трое",
  "4879": "труд",
  "4880": "трёх",
  "4881": "туал",
  "4882": "туда",
  "4883": "тура",
  "4884": "туре",
  "4885": "тури",
  "4886": "туру",
  "4887": "туры",
  "4888": "тыми",
  "4889": "тыся",
  "4890": "ться",
  "4891": "тюрь",
  "4892": "тяги",
  "4893": "тяжё",
  "4894": "тями",
  "4895": "тяну",
  "4896": "убий",
  "4897": "убил",
  "4898": "убра",
  "4899": "увер",
  "4900": "увле",
  "4901": "углу",
  "4902": "угол",
  "4903": "угро",
  "4904": "удал",
  "4905": "удар",
  "4906": "удив",
  "4907": "удоб",
  "4908": "ужас",
  "4909": "ужин",
  "4910": "узна",
  "4911": "уйти",
  "4912": "указ",
  "4913": "укра",
  "4914": "укры",
  "4915": "улыб",
  "4916": "умер",
  "4917": "упал",
  "4918": "упор",
  "4919": "уров",
  "4920": "урок",
  "4921": "услу",
  "4922": "услы",
  "4923": "усме",
  "4924": "успе",
  "4925": "уста",
  "4926": "уточ",
  "4927": "утра",
  "4928": "утро",
  "4929": "ухмы",
  "4930": "учеб",
  "4931": "учен",
  "4932": "учре",
  "4933": "ушел",
  "4934": "ушла",
  "4935": "ушли",
  "4936": "ушёл",
  "4937": "факт",
  "4938": "фаль",
  "4939": "фана",
  "4940": "фели",
  "4941": "фель",
  "4942": "фера",
  "4943": "фигу",
  "4944": "физи",
  "4945": "фика",
  "4946": "фили",
  "4947": "фило",
  "4948": "филь",
  "4949": "фици",
  "4950": "фона",
  "4951": "фоне",
  "4952": "форм",
  "4953": "фото",
  "4954": "фран",
  "4955": "фред",
  "4956": "фрон",
  "4957": "фрэн",
  "4958": "функ",
  "4959": "ффек",
  "4960": "хала",
  "4961": "хват",
  "4962": "хими",
  "4963": "хихи",
  "4964": "хлеб",
  "4965": "хлоп",
  "4966": "хнул",
  "4967": "хода",
  "4968": "ходе",
  "4969": "ходи",
  "4970": "ходу",
  "4971": "ходя",
  "4972": "хожу",
  "4973": "хозя",
  "4974": "холо",
  "4975": "хоро",
  "4976": "хоте",
  "4977": "хоть",
  "4978": "хотя",
  "4979": "хочу",
  "4980": "храм",
  "4981": "хруп",
  "4982": "худо",
  "4983": "хуже",
  "4984": "цами",
  "4985": "цара",
  "4986": "царь",
  "4987": "царя",
  "4988": "цати",
  "4989": "цать",
  "4990": "цвет",
  "4991": "цели",
  "4992": "цело",
  "4993": "целу",
  "4994": "цель",
  "4995": "цени",
  "4996": "цент",
  "4997": "цепи",
  "4998": "цией",
  "4999": "циен",
  "5000": "цион",
  "5001": "циях",
  "5002": "цкий",
  "5003": "чает",
  "5004": "чала",
  "5005": "чали",
  "5006": "чало",
  "5007": "чами",
  "5008": "часа",
  "5009": "част",
  "5010": "часы",
  "5011": "чать",
  "5012": "чаще",
  "5013": "чают",
  "5014": "чего",
  "5015": "челю",
  "5016": "чемо",
  "5017": "чему",
  "5018": "чена",
  "5019": "чено",
  "5020": "чены",
  "5021": "чера",
  "5022": "чере",
  "5023": "черт",
  "5024": "чета",
  "5025": "четы",
  "5026": "чешь",
  "5027": "чиво",
  "5028": "чика",
  "5029": "чики",
  "5030": "чина",
  "5031": "чита",
  "5032": "читы",
  "5033": "чить",
  "5034": "чкой",
  "5035": "чком",
  "5036": "член",
  "5037": "чная",
  "5038": "чное",
  "5039": "чной",
  "5040": "чном",
  "5041": "чную",
  "5042": "чные",
  "5043": "чный",
  "5044": "чным",
  "5045": "чных",
  "5046": "чрез",
  "5047": "чтоб",
  "5048": "чуде",
  "5049": "чудо",
  "5050": "чуть",
  "5051": "чёрт",
  "5052": "шаги",
  "5053": "шает",
  "5054": "шала",
  "5055": "шали",
  "5056": "шало",
  "5057": "шанс",
  "5058": "шара",
  "5059": "шать",
  "5060": "шего",
  "5061": "шель",
  "5062": "шему",
  "5063": "шено",
  "5064": "шила",
  "5065": "шили",
  "5066": "шими",
  "5067": "широ",
  "5068": "шить",
  "5069": "шкаф",
  "5070": "шкой",
  "5071": "шком",
  "5072": "шоке",
  "5073": "шоко",
  "5074": "штаб",
  "5075": "штур",
  "5076": "шься",
  "5077": "щает",
  "5078": "щала",
  "5079": "щали",
  "5080": "щать",
  "5081": "щего",
  "5082": "щеке",
  "5083": "щеки",
  "5084": "щему",
  "5085": "щена",
  "5086": "щены",
  "5087": "щими",
  "5088": "эдва",
  "5089": "экра",
  "5090": "элек",
  "5091": "элли",
  "5092": "эльф",
  "5093": "эмма",
  "5094": "энер",
  "5095": "эрик",
  "5096": "этаж",
  "5097": "этим",
  "5098": "этих",
  "5099": "этой",
  "5100": "этом",
  "5101": "этот",
  "5102": "юрий",
  "5103": "ются",
  "5104": "ющая",
  "5105": "ющее",
  "5106": "ющей",
  "5107": "ющем",
  "5108": "ющие",
  "5109": "ющий",
  "5110": "ющим",
  "5111": "ющих",
  "5112": "ющую",
  "5113": "ябло",
  "5114": "явля",
  "5115": "явно",
  "5116": "язык",
  "5117": "янва",
  "5118": "ярко",
  "5119": "ясно",
  "5120": "ятся",
  "5121": "ёнок",
  "5122": "ётся",
  "5123": "-year",
  "5124": "-либо",
  "5125": "-таки",
  "5126": "-чуть",
  "5127": "about",
  "5128": "above",
  "5129": "ached",
  "5130": "acher",
  "5131": "aches",
  "5132": "achie",
  "5133": "activ",
  "5134": "actor",
  "5135": "added",
  "5136": "after",
  "5137": "again",
  "5138": "ained",
  "5139": "aking",
  "5140": "aland",
  "5141": "album",
  "5142": "align",
  "5143": "ality",
  "5144": "allow",
  "5145": "along",
  "5146": "ament",
  "5147": "among",
  "5148": "ample",
  "5149": "ances",
  "5150": "ander",
  "5151": "andre",
  "5152": "angel",
  "5153": "ansas",
  "5154": "antic",
  "5155": "anton",
  "5156": "appro",
  "5157": "april",
  "5158": "areas",
  "5159": "aries",
  "5160": "arily",
  "5161": "arriv",
  "5162": "artic",
  "5163": "asian",
  "5164": "asing",
  "5165": "assem",
  "5166": "ately",
  "5167": "ating",
  "5168": "ation",
  "5169": "ative",
  "5170": "ators",
  "5171": "atory",
  "5172": "ature",
  "5173": "austr",
  "5174": "avail",
  "5175": "award",
  "5176": "based",
  "5177": "began",
  "5178": "being",
  "5179": "belie",
  "5180": "birth",
  "5181": "black",
  "5182": "board",
  "5183": "books",
  "5184": "bound",
  "5185": "brand",
  "5186": "break",
  "5187": "broad",
  "5188": "brown",
  "5189": "build",
  "5190": "built",
  "5191": "canad",
  "5192": "carol",
  "5193": "centr",
  "5194": "chair",
  "5195": "chall",
  "5196": "champ",
  "5197": "chang",
  "5198": "chann",
  "5199": "chart",
  "5200": "chief",
  "5201": "child",
  "5202": "china",
  "5203": "chris",
  "5204": "civil",
  "5205": "claim",
  "5206": "class",
  "5207": "clear",
  "5208": "close",
  "5209": "coach",
  "5210": "coast",
  "5211": "colle",
  "5212": "colon",
  "5213": "color",
  "5214": "colum",
  "5215": "comed",
  "5216": "comes",
  "5217": "compe",
  "5218": "compu",
  "5219": "condu",
  "5220": "conne",
  "5221": "conom",
  "5222": "contr",
  "5223": "could",
  "5224": "count",
  "5225": "court",
  "5226": "cover",
  "5227": "craft",
  "5228": "cross",
  "5229": "ction",
  "5230": "ctive",
  "5231": "cture",
  "5232": "dance",
  "5233": "daugh",
  "5234": "david",
  "5235": "death",
  "5236": "debut",
  "5237": "defin",
  "5238": "descr",
  "5239": "devel",
  "5240": "distr",
  "5241": "domin",
  "5242": "drama",
  "5243": "dutch",
  "5244": "earli",
  "5245": "early",
  "5246": "earth",
  "5247": "eight",
  "5248": "elect",
  "5249": "ember",
  "5250": "ement",
  "5251": "enced",
  "5252": "ences",
  "5253": "ended",
  "5254": "enter",
  "5255": "ently",
  "5256": "envir",
  "5257": "erous",
  "5258": "erson",
  "5259": "estab",
  "5260": "event",
  "5261": "every",
  "5262": "exhib",
  "5263": "exist",
  "5264": "exper",
  "5265": "famil",
  "5266": "feder",
  "5267": "field",
  "5268": "fight",
  "5269": "films",
  "5270": "final",
  "5271": "finan",
  "5272": "first",
  "5273": "force",
  "5274": "forms",
  "5275": "found",
  "5276": "frank",
  "5277": "frequ",
  "5278": "front",
  "5279": "games",
  "5280": "gener",
  "5281": "genus",
  "5282": "georg",
  "5283": "given",
  "5284": "goals",
  "5285": "gover",
  "5286": "gradu",
  "5287": "grand",
  "5288": "grant",
  "5289": "graph",
  "5290": "great",
  "5291": "greek",
  "5292": "green",
  "5293": "gress",
  "5294": "group",
  "5295": "guard",
  "5296": "habit",
  "5297": "heart",
  "5298": "henry",
  "5299": "herit",
  "5300": "holds",
  "5301": "honor",
  "5302": "house",
  "5303": "https",
  "5304": "human",
  "5305": "ially",
  "5306": "icket",
  "5307": "ident",
  "5308": "iding",
  "5309": "ients",
  "5310": "ified",
  "5311": "igned",
  "5312": "ility",
  "5313": "iment",
  "5314": "incre",
  "5315": "india",
  "5316": "indic",
  "5317": "iness",
  "5318": "influ",
  "5319": "inter",
  "5320": "intro",
  "5321": "invol",
  "5322": "ional",
  "5323": "irish",
  "5324": "ished",
  "5325": "isher",
  "5326": "ising",
  "5327": "ision",
  "5328": "issue",
  "5329": "istan",
  "5330": "ister",
  "5331": "italy",
  "5332": "ities",
  "5333": "iting",
  "5334": "ition",
  "5335": "itive",
  "5336": "ively",
  "5337": "ivers",
  "5338": "iving",
  "5339": "james",
  "5340": "japan",
  "5341": "known",
  "5342": "labor",
  "5343": "lands",
  "5344": "langu",
  "5345": "large",
  "5346": "later",
  "5347": "least",
  "5348": "legal",
  "5349": "level",
  "5350": "liber",
  "5351": "light",
  "5352": "lines",
  "5353": "links",
  "5354": "liter",
  "5355": "lived",
  "5356": "local",
  "5357": "louis",
  "5358": "lower",
  "5359": "magaz",
  "5360": "major",
  "5361": "manag",
  "5362": "march",
  "5363": "match",
  "5364": "mater",
  "5365": "medal",
  "5366": "media",
  "5367": "memor",
  "5368": "ments",
  "5369": "metro",
  "5370": "milit",
  "5371": "minis",
  "5372": "minor",
  "5373": "model",
  "5374": "moder",
  "5375": "money",
  "5376": "month",
  "5377": "mount",
  "5378": "moved",
  "5379": "music",
  "5380": "named",
  "5381": "names",
  "5382": "neigh",
  "5383": "never",
  "5384": "newsp",
  "5385": "night",
  "5386": "north",
  "5387": "notes",
  "5388": "novel",
  "5389": "occup",
  "5390": "occur",
  "5391": "ockey",
  "5392": "offer",
  "5393": "offic",
  "5394": "often",
  "5395": "ology",
  "5396": "olymp",
  "5397": "order",
  "5398": "organ",
  "5399": "other",
  "5400": "ought",
  "5401": "owned",
  "5402": "paris",
  "5403": "parli",
  "5404": "parts",
  "5405": "party",
  "5406": "patri",
  "5407": "peter",
  "5408": "photo",
  "5409": "place",
  "5410": "plann",
  "5411": "plant",
  "5412": "plays",
  "5413": "point",
  "5414": "polic",
  "5415": "polit",
  "5416": "popul",
  "5417": "posed",
  "5418": "power",
  "5419": "pract",
  "5420": "press",
  "5421": "print",
  "5422": "prior",
  "5423": "prize",
  "5424": "produ",
  "5425": "prote",
  "5426": "proza",
  "5427": "ption",
  "5428": "purch",
  "5429": "quest",
  "5430": "radio",
  "5431": "range",
  "5432": "ready",
  "5433": "refer",
  "5434": "relig",
  "5435": "rench",
  "5436": "reser",
  "5437": "revol",
  "5438": "right",
  "5439": "river",
  "5440": "roman",
  "5441": "rough",
  "5442": "round",
  "5443": "route",
  "5444": "royal",
  "5445": "rugby",
  "5446": "rural",
  "5447": "saint",
  "5448": "schol",
  "5449": "score",
  "5450": "scott",
  "5451": "secur",
  "5452": "separ",
  "5453": "seven",
  "5454": "sever",
  "5455": "ships",
  "5456": "shire",
  "5457": "short",
  "5458": "shows",
  "5459": "since",
  "5460": "small",
  "5461": "smith",
  "5462": "somet",
  "5463": "songs",
  "5464": "sound",
  "5465": "south",
  "5466": "space",
  "5467": "spain",
  "5468": "speed",
  "5469": "sport",
  "5470": "squad",
  "5471": "staff",
  "5472": "stage",
  "5473": "stand",
  "5474": "stant",
  "5475": "stars",
  "5476": "start",
  "5477": "state",
  "5478": "stead",
  "5479": "still",
  "5480": "stock",
  "5481": "stone",
  "5482": "story",
  "5483": "study",
  "5484": "style",
  "5485": "super",
  "5486": "taken",
  "5487": "teams",
  "5488": "techn",
  "5489": "texas",
  "5490": "theat",
  "5491": "their",
  "5492": "there",
  "5493": "thern",
  "5494": "thers",
  "5495": "these",
  "5496": "thing",
  "5497": "third",
  "5498": "those",
  "5499": "three",
  "5500": "times",
  "5501": "title",
  "5502": "tober",
  "5503": "today",
  "5504": "total",
  "5505": "tourn",
  "5506": "track",
  "5507": "trade",
  "5508": "train",
  "5509": "trans",
  "5510": "treat",
  "5511": "tries",
  "5512": "tween",
  "5513": "ually",
  "5514": "ument",
  "5515": "under",
  "5516": "union",
  "5517": "units",
  "5518": "until",
  "5519": "urban",
  "5520": "uring",
  "5521": "using",
  "5522": "ution",
  "5523": "value",
  "5524": "vania",
  "5525": "vehic",
  "5526": "video",
  "5527": "ville",
  "5528": "vious",
  "5529": "wales",
  "5530": "wards",
  "5531": "watch",
  "5532": "water",
  "5533": "where",
  "5534": "which",
  "5535": "while",
  "5536": "white",
  "5537": "whose",
  "5538": "wikip",
  "5539": "woman",
  "5540": "women",
  "5541": "works",
  "5542": "world",
  "5543": "worth",
  "5544": "would",
  "5545": "wrest",
  "5546": "wrote",
  "5547": "years",
  "5548": "young",
  "5549": "youth",
  "5550": "автор",
  "5551": "агент",
  "5552": "адрес",
  "5553": "акаде",
  "5554": "актив",
  "5555": "актри",
  "5556": "алась",
  "5557": "алекс",
  "5558": "алиса",
  "5559": "ались",
  "5560": "алось",
  "5561": "альбо",
  "5562": "ально",
  "5563": "альфа",
  "5564": "альше",
  "5565": "альян",
  "5566": "амери",
  "5567": "анали",
  "5568": "ангел",
  "5569": "англи",
  "5570": "андре",
  "5571": "антон",
  "5572": "армии",
  "5573": "артил",
  "5574": "артур",
  "5575": "бедра",
  "5576": "бежал",
  "5577": "безум",
  "5578": "белая",
  "5579": "белла",
  "5580": "белой",
  "5581": "белые",
  "5582": "белый",
  "5583": "берет",
  "5584": "бесед",
  "5585": "беско",
  "5586": "беспо",
  "5587": "бешен",
  "5588": "библи",
  "5589": "благо",
  "5590": "ближе",
  "5591": "близо",
  "5592": "блять",
  "5593": "бовал",
  "5594": "более",
  "5595": "болез",
  "5596": "борис",
  "5597": "бормо",
  "5598": "боюсь",
  "5599": "боясь",
  "5600": "брасы",
  "5601": "брата",
  "5602": "брать",
  "5603": "брита",
  "5604": "брови",
  "5605": "бровь",
  "5606": "броса",
  "5607": "броси",
  "5608": "будем",
  "5609": "будет",
  "5610": "будто",
  "5611": "будут",
  "5612": "ваешь",
  "5613": "важно",
  "5614": "вайся",
  "5615": "вален",
  "5616": "вался",
  "5617": "вампи",
  "5618": "вание",
  "5619": "вания",
  "5620": "вашей",
  "5621": "ваюсь",
  "5622": "ваясь",
  "5623": "вверх",
  "5624": "вдоль",
  "5625": "вдруг",
  "5626": "веден",
  "5627": "ведет",
  "5628": "везде",
  "5629": "верно",
  "5630": "верну",
  "5631": "вероя",
  "5632": "верси",
  "5633": "верши",
  "5634": "весел",
  "5635": "вести",
  "5636": "ветер",
  "5637": "ветра",
  "5638": "вечер",
  "5639": "вечно",
  "5640": "вещей",
  "5641": "взаим",
  "5642": "взгля",
  "5643": "вздох",
  "5644": "вздро",
  "5645": "взяла",
  "5646": "взяли",
  "5647": "взять",
  "5648": "видел",
  "5649": "видео",
  "5650": "видит",
  "5651": "видно",
  "5652": "видом",
  "5653": "викто",
  "5654": "вился",
  "5655": "виски",
  "5656": "влади",
  "5657": "влюби",
  "5658": "внизу",
  "5659": "внима",
  "5660": "вновь",
  "5661": "вовре",
  "5662": "вовсе",
  "5663": "водит",
  "5664": "водой",
  "5665": "возбу",
  "5666": "возвы",
  "5667": "возле",
  "5668": "возму",
  "5669": "возра",
  "5670": "война",
  "5671": "войне",
  "5672": "войну",
  "5673": "войны",
  "5674": "войск",
  "5675": "волно",
  "5676": "волну",
  "5677": "волос",
  "5678": "волше",
  "5679": "воору",
  "5680": "вопро",
  "5681": "ворот",
  "5682": "воспи",
  "5683": "воспо",
  "5684": "восто",
  "5685": "восхи",
  "5686": "вошел",
  "5687": "вошла",
  "5688": "вошли",
  "5689": "вошёл",
  "5690": "врага",
  "5691": "время",
  "5692": "вроде",
  "5693": "всего",
  "5694": "всеми",
  "5695": "всему",
  "5696": "вслед",
  "5697": "вслух",
  "5698": "встав",
  "5699": "встал",
  "5700": "встре",
  "5701": "всюду",
  "5702": "второ",
  "5703": "входа",
  "5704": "вцепи",
  "5705": "вчера",
  "5706": "вшего",
  "5707": "вшими",
  "5708": "вшись",
  "5709": "выбор",
  "5710": "выбра",
  "5711": "выгля",
  "5712": "выдох",
  "5713": "вызов",
  "5714": "выйдя",
  "5715": "выйти",
  "5716": "выпол",
  "5717": "высот",
  "5718": "выход",
  "5719": "вышел",
  "5720": "вышла",
  "5721": "вышли",
  "5722": "вышло",
  "5723": "вятся",
  "5724": "газин",
  "5725": "гался",
  "5726": "гарри",
  "5727": "генри",
  "5728": "герма",
  "5729": "герми",
  "5730": "герои",
  "5731": "герой",
  "5732": "героя",
  "5733": "гивая",
  "5734": "гиган",
  "5735": "глава",
  "5736": "главе",
  "5737": "глаза",
  "5738": "глуби",
  "5739": "глубо",
  "5740": "глупо",
  "5741": "глупы",
  "5742": "гляды",
  "5743": "глядя",
  "5744": "гнать",
  "5745": "гнула",
  "5746": "гнуть",
  "5747": "говор",
  "5748": "годах",
  "5749": "годня",
  "5750": "годов",
  "5751": "голов",
  "5752": "голос",
  "5753": "гордо",
  "5754": "горло",
  "5755": "город",
  "5756": "госпо",
  "5757": "гости",
  "5758": "готов",
  "5759": "грани",
  "5760": "графи",
  "5761": "грубо",
  "5762": "груди",
  "5763": "грудь",
  "5764": "губам",
  "5765": "губер",
  "5766": "давай",
  "5767": "давая",
  "5768": "давно",
  "5769": "далее",
  "5770": "дался",
  "5771": "дание",
  "5772": "дания",
  "5773": "двена",
  "5774": "двери",
  "5775": "дверь",
  "5776": "двига",
  "5777": "двоих",
  "5778": "дворе",
  "5779": "двумя",
  "5780": "делал",
  "5781": "делаю",
  "5782": "делая",
  "5783": "делом",
  "5784": "делся",
  "5785": "демон",
  "5786": "денег",
  "5787": "дерев",
  "5788": "держа",
  "5789": "держи",
  "5790": "десят",
  "5791": "детей",
  "5792": "дется",
  "5793": "джейн",
  "5794": "джера",
  "5795": "джона",
  "5796": "диван",
  "5797": "дился",
  "5798": "дипло",
  "5799": "дного",
  "5800": "добра",
  "5801": "добро",
  "5802": "довал",
  "5803": "довер",
  "5804": "догад",
  "5805": "дождь",
  "5806": "долги",
  "5807": "долго",
  "5808": "долла",
  "5809": "домаш",
  "5810": "домов",
  "5811": "домой",
  "5812": "допол",
  "5813": "доров",
  "5814": "доста",
  "5815": "дости",
  "5816": "досто",
  "5817": "дочер",
  "5818": "драго",
  "5819": "драко",
  "5820": "дрожа",
  "5821": "дрожь",
  "5822": "друга",
  "5823": "други",
  "5824": "друго",
  "5825": "другу",
  "5826": "думал",
  "5827": "думаю",
  "5828": "думая",
  "5829": "дурак",
  "5830": "духов",
  "5831": "духом",
  "5832": "душев",
  "5833": "душно",
  "5834": "дцати",
  "5835": "дцать",
  "5836": "еврей",
  "5837": "едине",
  "5838": "едино",
  "5839": "елена",
  "5840": "ением",
  "5841": "енное",
  "5842": "енной",
  "5843": "енные",
  "5844": "енный",
  "5845": "енька",
  "5846": "енько",
  "5847": "етесь",
  "5848": "ехала",
  "5849": "ехали",
  "5850": "ехать",
  "5851": "ешься",
  "5852": "жадно",
  "5853": "жалко",
  "5854": "жался",
  "5855": "ждает",
  "5856": "ждала",
  "5857": "ждали",
  "5858": "ждать",
  "5859": "желая",
  "5860": "желез",
  "5861": "жение",
  "5862": "жении",
  "5863": "жений",
  "5864": "жению",
  "5865": "жения",
  "5866": "женно",
  "5867": "женой",
  "5868": "женщи",
  "5869": "жесто",
  "5870": "живая",
  "5871": "живет",
  "5872": "живой",
  "5873": "живот",
  "5874": "живут",
  "5875": "живых",
  "5876": "жизни",
  "5877": "жизнь",
  "5878": "жился",
  "5879": "жимая",
  "5880": "жного",
  "5881": "жутко",
  "5882": "забот",
  "5883": "забра",
  "5884": "забыл",
  "5885": "завер",
  "5886": "завет",
  "5887": "завод",
  "5888": "загля",
  "5889": "задум",
  "5890": "зажму",
  "5891": "заказ",
  "5892": "заклю",
  "5893": "закон",
  "5894": "закры",
  "5895": "замен",
  "5896": "замер",
  "5897": "замет",
  "5898": "замка",
  "5899": "замок",
  "5900": "замол",
  "5901": "замуж",
  "5902": "заним",
  "5903": "запад",
  "5904": "запах",
  "5905": "запер",
  "5906": "запла",
  "5907": "запол",
  "5908": "запре",
  "5909": "заслу",
  "5910": "засты",
  "5911": "затем",
  "5912": "зации",
  "5913": "зачем",
  "5914": "зашел",
  "5915": "зашла",
  "5916": "звали",
  "5917": "звуки",
  "5918": "здесь",
  "5919": "здоро",
  "5920": "здрав",
  "5921": "зелен",
  "5922": "земле",
  "5923": "земли",
  "5924": "землю",
  "5925": "земля",
  "5926": "зерка",
  "5927": "знаем",
  "5928": "знает",
  "5929": "знако",
  "5930": "знала",
  "5931": "знали",
  "5932": "знать",
  "5933": "значи",
  "5934": "знают",
  "5935": "зован",
  "5936": "зовут",
  "5937": "игорь",
  "5938": "играл",
  "5939": "играх",
  "5940": "идиот",
  "5941": "из-за",
  "5942": "избра",
  "5943": "измен",
  "5944": "ились",
  "5945": "имеет",
  "5946": "имела",
  "5947": "имели",
  "5948": "имени",
  "5949": "иметь",
  "5950": "имеют",
  "5951": "имуще",
  "5952": "иначе",
  "5953": "инжен",
  "5954": "иници",
  "5955": "инсти",
  "5956": "интел",
  "5957": "интер",
  "5958": "исклю",
  "5959": "искус",
  "5960": "испол",
  "5961": "испор",
  "5962": "истер",
  "5963": "истин",
  "5964": "источ",
  "5965": "исчез",
  "5966": "итали",
  "5967": "итачи",
  "5968": "итоге",
  "5969": "иться",
  "5970": "йтесь",
  "5971": "кажды",
  "5972": "казах",
  "5973": "какая",
  "5974": "какие",
  "5975": "каким",
  "5976": "каких",
  "5977": "какое",
  "5978": "какой",
  "5979": "каком",
  "5980": "какую",
  "5981": "камен",
  "5982": "камер",
  "5983": "камне",
  "5984": "канди",
  "5985": "канчи",
  "5986": "капли",
  "5987": "карма",
  "5988": "карти",
  "5989": "карто",
  "5990": "касти",
  "5991": "кивая",
  "5992": "кинул",
  "5993": "кирил",
  "5994": "кисло",
  "5995": "китай",
  "5996": "клады",
  "5997": "класс",
  "5998": "клиен",
  "5999": "клина",
  "6000": "клуба",
  "6001": "ключи",
  "6002": "книга",
  "6003": "книге",
  "6004": "книги",
  "6005": "книгу",
  "6006": "кнула",
  "6007": "князь",
  "6008": "ковал",
  "6009": "ковой",
  "6010": "когда",
  "6011": "колду",
  "6012": "колен",
  "6013": "колле",
  "6014": "коман",
  "6015": "комен",
  "6016": "комму",
  "6017": "комна",
  "6018": "компа",
  "6019": "конец",
  "6020": "конца",
  "6021": "конце",
  "6022": "концу",
  "6023": "кончи",
  "6024": "кораб",
  "6025": "корми",
  "6026": "корот",
  "6027": "корпу",
  "6028": "косми",
  "6029": "космо",
  "6030": "кости",
  "6031": "кость",
  "6032": "костю",
  "6033": "костя",
  "6034": "краса",
  "6035": "краси",
  "6036": "крест",
  "6037": "крики",
  "6038": "крити",
  "6039": "крова",
  "6040": "крови",
  "6041": "кровь",
  "6042": "кроме",
  "6043": "крыль",
  "6044": "ктора",
  "6045": "курсе",
  "6046": "кусок",
  "6047": "кухне",
  "6048": "кухни",
  "6049": "кухню",
  "6050": "лагер",
  "6051": "ладно",
  "6052": "ласко",
  "6053": "левой",
  "6054": "леген",
  "6055": "легко",
  "6056": "легла",
  "6057": "легче",
  "6058": "лежал",
  "6059": "лежит",
  "6060": "лекар",
  "6061": "ление",
  "6062": "лении",
  "6063": "лений",
  "6064": "ленин",
  "6065": "лению",
  "6066": "ления",
  "6067": "ленно",
  "6068": "летел",
  "6069": "летом",
  "6070": "ливый",
  "6071": "лился",
  "6072": "линии",
  "6073": "лицей",
  "6074": "лицом",
  "6075": "лично",
  "6076": "лович",
  "6077": "ловко",
  "6078": "лучше",
  "6079": "льная",
  "6080": "льное",
  "6081": "льной",
  "6082": "льном",
  "6083": "льную",
  "6084": "льные",
  "6085": "льный",
  "6086": "льным",
  "6087": "льных",
  "6088": "любви",
  "6089": "любил",
  "6090": "любит",
  "6091": "люблю",
  "6092": "любов",
  "6093": "любой",
  "6094": "любом",
  "6095": "любят",
  "6096": "людей",
  "6097": "людям",
  "6098": "лённо",
  "6099": "магаз",
  "6100": "магии",
  "6101": "майкл",
  "6102": "майор",
  "6103": "макси",
  "6104": "малыш",
  "6105": "мария",
  "6106": "марта",
  "6107": "матер",
  "6108": "матри",
  "6109": "мгнов",
  "6110": "между",
  "6111": "менее",
  "6112": "менно",
  "6113": "мента",
  "6114": "менты",
  "6115": "места",
  "6116": "месте",
  "6117": "место",
  "6118": "месту",
  "6119": "месяц",
  "6120": "метал",
  "6121": "метра",
  "6122": "метро",
  "6123": "мечта",
  "6124": "микро",
  "6125": "милая",
  "6126": "милли",
  "6127": "милый",
  "6128": "миная",
  "6129": "минут",
  "6130": "мирно",
  "6131": "миром",
  "6132": "мисси",
  "6133": "михай",
  "6134": "многи",
  "6135": "много",
  "6136": "множе",
  "6137": "могла",
  "6138": "могли",
  "6139": "могло",
  "6140": "могут",
  "6141": "моего",
  "6142": "моему",
  "6143": "можем",
  "6144": "может",
  "6145": "можно",
  "6146": "мокры",
  "6147": "молит",
  "6148": "молча",
  "6149": "мороз",
  "6150": "мости",
  "6151": "мость",
  "6152": "мужем",
  "6153": "мужик",
  "6154": "мужчи",
  "6155": "музей",
  "6156": "мысли",
  "6157": "мысль",
  "6158": "мысля",
  "6159": "мягко",
  "6160": "наблю",
  "6161": "набра",
  "6162": "навер",
  "6163": "навли",
  "6164": "нагло",
  "6165": "награ",
  "6166": "надея",
  "6167": "назад",
  "6168": "назва",
  "6169": "назна",
  "6170": "найти",
  "6171": "накло",
  "6172": "накры",
  "6173": "намер",
  "6174": "напар",
  "6175": "напол",
  "6176": "напря",
  "6177": "нарко",
  "6178": "народ",
  "6179": "насел",
  "6180": "насла",
  "6181": "насме",
  "6182": "настя",
  "6183": "научи",
  "6184": "нахму",
  "6185": "начал",
  "6186": "нашей",
  "6187": "нашел",
  "6188": "нашем",
  "6189": "нашим",
  "6190": "наших",
  "6191": "нашла",
  "6192": "нашли",
  "6193": "нашёл",
  "6194": "небес",
  "6195": "недоу",
  "6196": "нежно",
  "6197": "немец",
  "6198": "нение",
  "6199": "нения",
  "6200": "ненно",
  "6201": "необы",
  "6202": "неожи",
  "6203": "непод",
  "6204": "непре",
  "6205": "непри",
  "6206": "несла",
  "6207": "несли",
  "6208": "нести",
  "6209": "нется",
  "6210": "неуда",
  "6211": "нечто",
  "6212": "никак",
  "6213": "никам",
  "6214": "никах",
  "6215": "ников",
  "6216": "ником",
  "6217": "никто",
  "6218": "нился",
  "6219": "ницей",
  "6220": "ничем",
  "6221": "ничто",
  "6222": "ниями",
  "6223": "нного",
  "6224": "нному",
  "6225": "новая",
  "6226": "нович",
  "6227": "новое",
  "6228": "новой",
  "6229": "новую",
  "6230": "новые",
  "6231": "новый",
  "6232": "новым",
  "6233": "новых",
  "6234": "ногах",
  "6235": "ногой",
  "6236": "номер",
  "6237": "носит",
  "6238": "носом",
  "6239": "ности",
  "6240": "ность",
  "6241": "ночью",
  "6242": "нрави",
  "6243": "нский",
  "6244": "нской",
  "6245": "нужен",
  "6246": "нужна",
  "6247": "нужно",
  "6248": "нужны",
  "6249": "нулся",
  "6250": "нынеш",
  "6251": "обеща",
  "6252": "обита",
  "6253": "облег",
  "6254": "обнял",
  "6255": "обоих",
  "6256": "оборо",
  "6257": "обору",
  "6258": "образ",
  "6259": "общей",
  "6260": "общем",
  "6261": "объек",
  "6262": "обяза",
  "6263": "овать",
  "6264": "огонь",
  "6265": "огром",
  "6266": "одино",
  "6267": "одним",
  "6268": "однов",
  "6269": "одной",
  "6270": "одном",
  "6271": "ожида",
  "6272": "озера",
  "6273": "оказа",
  "6274": "оказы",
  "6275": "окном",
  "6276": "около",
  "6277": "ологи",
  "6278": "ольга",
  "6279": "ональ",
  "6280": "опера",
  "6281": "описа",
  "6282": "опять",
  "6283": "орден",
  "6284": "ориен",
  "6285": "оружи",
  "6286": "осень",
  "6287": "оскор",
  "6288": "основ",
  "6289": "особо",
  "6290": "остав",
  "6291": "остро",
  "6292": "отвер",
  "6293": "ответ",
  "6294": "отвле",
  "6295": "отвра",
  "6296": "отдал",
  "6297": "отдел",
  "6298": "отдох",
  "6299": "отече",
  "6300": "отказ",
  "6301": "откро",
  "6302": "откры",
  "6303": "отлич",
  "6304": "отмет",
  "6305": "отнош",
  "6306": "отрез",
  "6307": "отряд",
  "6308": "отсут",
  "6309": "оттен",
  "6310": "отцом",
  "6311": "отчая",
  "6312": "отчет",
  "6313": "офици",
  "6314": "охран",
  "6315": "оцени",
  "6316": "очень",
  "6317": "очере",
  "6318": "павел",
  "6319": "пакет",
  "6320": "палец",
  "6321": "парни",
  "6322": "парню",
  "6323": "парня",
  "6324": "парта",
  "6325": "пасса",
  "6326": "патри",
  "6327": "пенси",
  "6328": "перво",
  "6329": "перед",
  "6330": "перен",
  "6331": "персо",
  "6332": "перёд",
  "6333": "песен",
  "6334": "песни",
  "6335": "песню",
  "6336": "песня",
  "6337": "петер",
  "6338": "петро",
  "6339": "печат",
  "6340": "писал",
  "6341": "писто",
  "6342": "питер",
  "6343": "плане",
  "6344": "плани",
  "6345": "планы",
  "6346": "плать",
  "6347": "плеча",
  "6348": "плечи",
  "6349": "плечо",
  "6350": "плечу",
  "6351": "плохо",
  "6352": "площа",
  "6353": "повед",
  "6354": "повер",
  "6355": "повре",
  "6356": "повто",
  "6357": "погиб",
  "6358": "погла",
  "6359": "погло",
  "6360": "погру",
  "6361": "подар",
  "6362": "подви",
  "6363": "подда",
  "6364": "подня",
  "6365": "подоб",
  "6366": "подой",
  "6367": "подра",
  "6368": "подро",
  "6369": "подру",
  "6370": "подчи",
  "6371": "поезд",
  "6372": "пожал",
  "6373": "позво",
  "6374": "позже",
  "6375": "пойду",
  "6376": "пойти",
  "6377": "показ",
  "6378": "покло",
  "6379": "покой",
  "6380": "покры",
  "6381": "полез",
  "6382": "полет",
  "6383": "полка",
  "6384": "полне",
  "6385": "полно",
  "6386": "полов",
  "6387": "получ",
  "6388": "помни",
  "6389": "помню",
  "6390": "помог",
  "6391": "помол",
  "6392": "помощ",
  "6393": "поним",
  "6394": "понял",
  "6395": "попал",
  "6396": "попро",
  "6397": "попыт",
  "6398": "порой",
  "6399": "порту",
  "6400": "поряд",
  "6401": "посвя",
  "6402": "посел",
  "6403": "посла",
  "6404": "после",
  "6405": "послу",
  "6406": "посме",
  "6407": "поспе",
  "6408": "поста",
  "6409": "пости",
  "6410": "посту",
  "6411": "потен",
  "6412": "потер",
  "6413": "потол",
  "6414": "потом",
  "6415": "потре",
  "6416": "потря",
  "6417": "поход",
  "6418": "похож",
  "6419": "почти",
  "6420": "пошел",
  "6421": "пошла",
  "6422": "пошли",
  "6423": "пошёл",
  "6424": "появи",
  "6425": "права",
  "6426": "прави",
  "6427": "право",
  "6428": "празд",
  "6429": "пребы",
  "6430": "преда",
  "6431": "предо",
  "6432": "преду",
  "6433": "преды",
  "6434": "прези",
  "6435": "премь",
  "6436": "преры",
  "6437": "прибы",
  "6438": "привы",
  "6439": "привя",
  "6440": "прида",
  "6441": "приду",
  "6442": "приез",
  "6443": "прием",
  "6444": "призы",
  "6445": "прику",
  "6446": "прило",
  "6447": "принц",
  "6448": "приня",
  "6449": "приро",
  "6450": "прист",
  "6451": "причи",
  "6452": "прищу",
  "6453": "прият",
  "6454": "пробе",
  "6455": "проби",
  "6456": "пробу",
  "6457": "прово",
  "6458": "прогу",
  "6459": "прода",
  "6460": "проду",
  "6461": "проек",
  "6462": "прожи",
  "6463": "произ",
  "6464": "проис",
  "6465": "пропа",
  "6466": "проро",
  "6467": "проси",
  "6468": "прось",
  "6469": "проте",
  "6470": "проти",
  "6471": "прото",
  "6472": "протя",
  "6473": "профе",
  "6474": "прохо",
  "6475": "проце",
  "6476": "прочь",
  "6477": "проши",
  "6478": "прошу",
  "6479": "проща",
  "6480": "проще",
  "6481": "прями",
  "6482": "прямо",
  "6483": "психи",
  "6484": "публи",
  "6485": "пуска",
  "6486": "пусти",
  "6487": "пусто",
  "6488": "пусты",
  "6489": "пусть",
  "6490": "пушки",
  "6491": "работ",
  "6492": "равно",
  "6493": "радио",
  "6494": "радов",
  "6495": "разби",
  "6496": "разбу",
  "6497": "разве",
  "6498": "разви",
  "6499": "разда",
  "6500": "разде",
  "6501": "раздо",
  "6502": "разли",
  "6503": "разме",
  "6504": "разно",
  "6505": "разоз",
  "6506": "разом",
  "6507": "разор",
  "6508": "разру",
  "6509": "разры",
  "6510": "разум",
  "6511": "район",
  "6512": "ранее",
  "6513": "раска",
  "6514": "рассе",
  "6515": "рассу",
  "6516": "расти",
  "6517": "растя",
  "6518": "расши",
  "6519": "реаги",
  "6520": "ребен",
  "6521": "ребят",
  "6522": "ребён",
  "6523": "ревно",
  "6524": "редко",
  "6525": "резко",
  "6526": "ремон",
  "6527": "ресни",
  "6528": "респу",
  "6529": "ресто",
  "6530": "решив",
  "6531": "решил",
  "6532": "рился",
  "6533": "рисов",
  "6534": "ровал",
  "6535": "рован",
  "6536": "ровка",
  "6537": "ровки",
  "6538": "ровно",
  "6539": "рожде",
  "6540": "розов",
  "6541": "роман",
  "6542": "росси",
  "6543": "руках",
  "6544": "рукой",
  "6545": "ручку",
  "6546": "рюнтю",
  "6547": "рядом",
  "6548": "сайте",
  "6549": "самая",
  "6550": "самим",
  "6551": "самое",
  "6552": "самой",
  "6553": "самом",
  "6554": "самую",
  "6555": "самые",
  "6556": "самый",
  "6557": "самым",
  "6558": "самых",
  "6559": "саске",
  "6560": "свадь",
  "6561": "свали",
  "6562": "света",
  "6563": "свете",
  "6564": "свети",
  "6565": "свиде",
  "6566": "свобо",
  "6567": "своей",
  "6568": "своем",
  "6569": "своим",
  "6570": "своих",
  "6571": "своём",
  "6572": "связа",
  "6573": "связи",
  "6574": "связы",
  "6575": "связь",
  "6576": "сдела",
  "6577": "север",
  "6578": "сегод",
  "6579": "секре",
  "6580": "сексу",
  "6581": "секун",
  "6582": "семей",
  "6583": "семье",
  "6584": "семьи",
  "6585": "семью",
  "6586": "семья",
  "6587": "серде",
  "6588": "серди",
  "6589": "серии",
  "6590": "сесть",
  "6591": "сзади",
  "6592": "сидел",
  "6593": "сидит",
  "6594": "силах",
  "6595": "силой",
  "6596": "симпа",
  "6597": "систе",
  "6598": "ситуа",
  "6599": "скажи",
  "6600": "скажу",
  "6601": "сказа",
  "6602": "сказы",
  "6603": "сками",
  "6604": "скать",
  "6605": "скими",
  "6606": "ского",
  "6607": "сколь",
  "6608": "скому",
  "6609": "скоре",
  "6610": "скоро",
  "6611": "скочи",
  "6612": "скрип",
  "6613": "скром",
  "6614": "слабо",
  "6615": "слава",
  "6616": "славя",
  "6617": "следу",
  "6618": "следы",
  "6619": "слезы",
  "6620": "слова",
  "6621": "слови",
  "6622": "слово",
  "6623": "служа",
  "6624": "служи",
  "6625": "случа",
  "6626": "случи",
  "6627": "слуша",
  "6628": "слуши",
  "6629": "слыши",
  "6630": "слышу",
  "6631": "слёзы",
  "6632": "смело",
  "6633": "смени",
  "6634": "смогу",
  "6635": "смысл",
  "6636": "снима",
  "6637": "снова",
  "6638": "снять",
  "6639": "собой",
  "6640": "собра",
  "6641": "совер",
  "6642": "совет",
  "6643": "совме",
  "6644": "совре",
  "6645": "согла",
  "6646": "соеди",
  "6647": "сожал",
  "6648": "созда",
  "6649": "созна",
  "6650": "сокра",
  "6651": "солда",
  "6652": "солне",
  "6653": "сомне",
  "6654": "соору",
  "6655": "сопер",
  "6656": "сосед",
  "6657": "соста",
  "6658": "сотни",
  "6659": "сотру",
  "6660": "сохра",
  "6661": "союза",
  "6662": "спала",
  "6663": "спаль",
  "6664": "спаса",
  "6665": "спаси",
  "6666": "спать",
  "6667": "специ",
  "6668": "спине",
  "6669": "спину",
  "6670": "спины",
  "6671": "спока",
  "6672": "споко",
  "6673": "спорт",
  "6674": "сразу",
  "6675": "среди",
  "6676": "средо",
  "6677": "стави",
  "6678": "стайл",
  "6679": "стала",
  "6680": "стали",
  "6681": "стало",
  "6682": "стами",
  "6683": "стана",
  "6684": "стара",
  "6685": "стари",
  "6686": "старо",
  "6687": "стару",
  "6688": "стати",
  "6689": "стату",
  "6690": "стать",
  "6691": "ствен",
  "6692": "ствие",
  "6693": "ствии",
  "6694": "ствия",
  "6695": "ствов",
  "6696": "ством",
  "6697": "стена",
  "6698": "стене",
  "6699": "стену",
  "6700": "стены",
  "6701": "стера",
  "6702": "стиан",
  "6703": "стика",
  "6704": "стики",
  "6705": "стить",
  "6706": "стихи",
  "6707": "стной",
  "6708": "стные",
  "6709": "стный",
  "6710": "стным",
  "6711": "стоит",
  "6712": "стола",
  "6713": "столе",
  "6714": "столи",
  "6715": "столк",
  "6716": "столу",
  "6717": "столь",
  "6718": "сторо",
  "6719": "стоял",
  "6720": "страи",
  "6721": "стран",
  "6722": "страх",
  "6723": "страш",
  "6724": "стрел",
  "6725": "стрем",
  "6726": "строи",
  "6727": "строй",
  "6728": "струк",
  "6729": "стула",
  "6730": "ступа",
  "6731": "ступи",
  "6732": "стьян",
  "6733": "стями",
  "6734": "сумас",
  "6735": "сумку",
  "6736": "супер",
  "6737": "супру",
  "6738": "сходи",
  "6739": "счаст",
  "6740": "счита",
  "6741": "сыгра",
  "6742": "сюжет",
  "6743": "такая",
  "6744": "также",
  "6745": "такие",
  "6746": "таким",
  "6747": "таких",
  "6748": "такое",
  "6749": "такой",
  "6750": "таком",
  "6751": "такси",
  "6752": "такую",
  "6753": "талию",
  "6754": "тался",
  "6755": "танце",
  "6756": "тации",
  "6757": "тащил",
  "6758": "твоей",
  "6759": "твоим",
  "6760": "твоих",
  "6761": "твори",
  "6762": "театр",
  "6763": "текст",
  "6764": "телей",
  "6765": "телем",
  "6766": "телом",
  "6767": "телям",
  "6768": "темно",
  "6769": "тепер",
  "6770": "тепло",
  "6771": "теплы",
  "6772": "техни",
  "6773": "тивно",
  "6774": "тился",
  "6775": "тирая",
  "6776": "тихий",
  "6777": "тного",
  "6778": "тобой",
  "6779": "тогда",
  "6780": "тоном",
  "6781": "торго",
  "6782": "торже",
  "6783": "тории",
  "6784": "тормо",
  "6785": "тором",
  "6786": "точка",
  "6787": "точки",
  "6788": "точку",
  "6789": "точно",
  "6790": "тради",
  "6791": "транс",
  "6792": "требу",
  "6793": "трево",
  "6794": "трени",
  "6795": "треть",
  "6796": "труда",
  "6797": "туман",
  "6798": "турни",
  "6799": "тывая",
  "6800": "тысяч",
  "6801": "тября",
  "6802": "тяжел",
  "6803": "тянул",
  "6804": "тёплы",
  "6805": "убеди",
  "6806": "убира",
  "6807": "убить",
  "6808": "уважа",
  "6809": "увели",
  "6810": "увиде",
  "6811": "удали",
  "6812": "удара",
  "6813": "удиви",
  "6814": "ужаса",
  "6815": "узнал",
  "6816": "указа",
  "6817": "указы",
  "6818": "украи",
  "6819": "улица",
  "6820": "улице",
  "6821": "улицу",
  "6822": "улицы",
  "6823": "улыба",
  "6824": "умира",
  "6825": "умоля",
  "6826": "упала",
  "6827": "управ",
  "6828": "усили",
  "6829": "услыш",
  "6830": "усмех",
  "6831": "успел",
  "6832": "устал",
  "6833": "устро",
  "6834": "утвер",
  "6835": "утрен",
  "6836": "утром",
  "6837": "уходи",
  "6838": "участ",
  "6839": "учени",
  "6840": "учили",
  "6841": "учить",
  "6842": "учиха",
  "6843": "фанта",
  "6844": "февра",
  "6845": "ферен",
  "6846": "фести",
  "6847": "филип",
  "6848": "фильм",
  "6849": "финан",
  "6850": "форма",
  "6851": "форме",
  "6852": "форми",
  "6853": "форму",
  "6854": "формы",
  "6855": "футбо",
  "6856": "харак",
  "6857": "хвати",
  "6858": "хваты",
  "6859": "хвост",
  "6860": "хитро",
  "6861": "хнула",
  "6862": "ходил",
  "6863": "ходит",
  "6864": "ходом",
  "6865": "ходят",
  "6866": "хозяй",
  "6867": "холод",
  "6868": "хорош",
  "6869": "хотел",
  "6870": "хотят",
  "6871": "хохот",
  "6872": "хочет",
  "6873": "храни",
  "6874": "худож",
  "6875": "цвета",
  "6876": "цветы",
  "6877": "целов",
  "6878": "целом",
  "6879": "целуй",
  "6880": "целую",
  "6881": "целый",
  "6882": "целью",
  "6883": "ценно",
  "6884": "центр",
  "6885": "циаль",
  "6886": "циями",
  "6887": "чался",
  "6888": "часов",
  "6889": "части",
  "6890": "часто",
  "6891": "часть",
  "6892": "челов",
  "6893": "чемпи",
  "6894": "чение",
  "6895": "чении",
  "6896": "чения",
  "6897": "ченно",
  "6898": "через",
  "6899": "черно",
  "6900": "черта",
  "6901": "черты",
  "6902": "чески",
  "6903": "честь",
  "6904": "чется",
  "6905": "чиков",
  "6906": "числе",
  "6907": "число",
  "6908": "чисто",
  "6909": "читал",
  "6910": "чками",
  "6911": "члены",
  "6912": "чного",
  "6913": "чными",
  "6914": "чтобы",
  "6915": "чудес",
  "6916": "шагов",
  "6917": "шагом",
  "6918": "шатен",
  "6919": "шение",
  "6920": "шения",
  "6921": "шенно",
  "6922": "шести",
  "6923": "шесть",
  "6924": "шками",
  "6925": "школа",
  "6926": "школе",
  "6927": "школу",
  "6928": "школы",
  "6929": "шлось",
  "6930": "штаны",
  "6931": "шумно",
  "6932": "щался",
  "6933": "щаясь",
  "6934": "щение",
  "6935": "щении",
  "6936": "щений",
  "6937": "щения",
  "6938": "щенно",
  "6939": "щихся",
  "6940": "эконо",
  "6941": "эльза",
  "6942": "этаже",
  "6943": "этими",
  "6944": "этого",
  "6945": "этому",
  "6946": "эффек",
  "6947": "юноша",
  "6948": "ющего",
  "6949": "ющими",
  "6950": "языка",
  "6951": "языке",
  "6952": "ённые",
  "6953": "ённый",
  "6954": "ённых",
  "6955": "-восто",
  "6956": "academ",
  "6957": "accept",
  "6958": "access",
  "6959": "accord",
  "6960": "aching",
  "6961": "across",
  "6962": "action",
  "6963": "active",
  "6964": "africa",
  "6965": "albums",
  "6966": "almost",
  "6967": "alumni",
  "6968": "announ",
  "6969": "annual",
  "6970": "appear",
  "6971": "applic",
  "6972": "around",
  "6973": "artist",
  "6974": "assist",
  "6975": "associ",
  "6976": "athlet",
  "6977": "ations",
  "6978": "atives",
  "6979": "attack",
  "6980": "august",
  "6981": "author",
  "6982": "awards",
  "6983": "basket",
  "6984": "battle",
  "6985": "became",
  "6986": "become",
  "6987": "before",
  "6988": "behind",
  "6989": "births",
  "6990": "bishop",
  "6991": "brazil",
  "6992": "bridge",
  "6993": "called",
  "6994": "canada",
  "6995": "candid",
  "6996": "career",
  "6997": "castle",
  "6998": "celebr",
  "6999": "census",
  "7000": "center",
  "7001": "centre",
  "7002": "change",
  "7003": "charac",
  "7004": "christ",
  "7005": "church",
  "7006": "cially",
  "7007": "closed",
  "7008": "coming",
  "7009": "commer",
  "7010": "commit",
  "7011": "common",
  "7012": "commun",
  "7013": "compan",
  "7014": "compar",
  "7015": "compet",
  "7016": "comple",
  "7017": "concer",
  "7018": "confer",
  "7019": "consid",
  "7020": "contin",
  "7021": "corpor",
  "7022": "county",
  "7023": "course",
  "7024": "critic",
  "7025": "ctions",
  "7026": "deaths",
  "7027": "degree",
  "7028": "democr",
  "7029": "depart",
  "7030": "depend",
  "7031": "design",
  "7032": "differ",
  "7033": "direct",
  "7034": "during",
  "7035": "econom",
  "7036": "editor",
  "7037": "effect",
  "7038": "either",
  "7039": "ements",
  "7040": "empire",
  "7041": "employ",
  "7042": "ending",
  "7043": "energy",
  "7044": "engine",
  "7045": "ensive",
  "7046": "ential",
  "7047": "entire",
  "7048": "ership",
  "7049": "establ",
  "7050": "europe",
  "7051": "events",
  "7052": "execut",
  "7053": "experi",
  "7054": "family",
  "7055": "father",
  "7056": "fellow",
  "7057": "female",
  "7058": "flight",
  "7059": "follow",
  "7060": "forces",
  "7061": "forest",
  "7062": "forman",
  "7063": "formed",
  "7064": "former",
  "7065": "fourth",
  "7066": "france",
  "7067": "french",
  "7068": "friend",
  "7069": "future",
  "7070": "george",
  "7071": "german",
  "7072": "govern",
  "7073": "graphy",
  "7074": "ground",
  "7075": "groups",
  "7076": "guitar",
  "7077": "having",
  "7078": "health",
  "7079": "higher",
  "7080": "histor",
  "7081": "hockey",
  "7082": "houses",
  "7083": "ically",
  "7084": "iction",
  "7085": "idence",
  "7086": "idents",
  "7087": "import",
  "7088": "inated",
  "7089": "includ",
  "7090": "indian",
  "7091": "ington",
  "7092": "inning",
  "7093": "instit",
  "7094": "intern",
  "7095": "invest",
  "7096": "ipedia",
  "7097": "iption",
  "7098": "ishing",
  "7099": "island",
  "7100": "israel",
  "7101": "issues",
  "7102": "istics",
  "7103": "itions",
  "7104": "jewish",
  "7105": "joined",
  "7106": "joseph",
  "7107": "killed",
  "7108": "leader",
  "7109": "league",
  "7110": "legisl",
  "7111": "listed",
  "7112": "little",
  "7113": "living",
  "7114": "london",
  "7115": "making",
  "7116": "marine",
  "7117": "market",
  "7118": "martin",
  "7119": "master",
  "7120": "member",
  "7121": "method",
  "7122": "mexico",
  "7123": "middle",
  "7124": "modern",
  "7125": "months",
  "7126": "mother",
  "7127": "museum",
  "7128": "nation",
  "7129": "native",
  "7130": "number",
  "7131": "office",
  "7132": "online",
  "7133": "opened",
  "7134": "origin",
  "7135": "others",
  "7136": "partic",
  "7137": "people",
  "7138": "period",
  "7139": "person",
  "7140": "placed",
  "7141": "places",
  "7142": "played",
  "7143": "player",
  "7144": "poetry",
  "7145": "points",
  "7146": "police",
  "7147": "porary",
  "7148": "prince",
  "7149": "prison",
  "7150": "proble",
  "7151": "promot",
  "7152": "proper",
  "7153": "public",
  "7154": "rather",
  "7155": "reason",
  "7156": "recent",
  "7157": "recogn",
  "7158": "record",
  "7159": "regard",
  "7160": "region",
  "7161": "remain",
  "7162": "report",
  "7163": "republ",
  "7164": "respon",
  "7165": "result",
  "7166": "return",
  "7167": "review",
  "7168": "rights",
  "7169": "robert",
  "7170": "russia",
  "7171": "ryunty",
  "7172": "school",
  "7173": "scient",
  "7174": "scored",
  "7175": "screen",
  "7176": "season",
  "7177": "second",
  "7178": "secret",
  "7179": "senior",
  "7180": "series",
  "7181": "served",
  "7182": "settle",
  "7183": "should",
  "7184": "signed",
  "7185": "silver",
  "7186": "singer",
  "7187": "single",
  "7188": "social",
  "7189": "soviet",
  "7190": "sports",
  "7191": "spring",
  "7192": "stated",
  "7193": "states",
  "7194": "street",
  "7195": "strong",
  "7196": "struct",
  "7197": "studio",
  "7198": "summer",
  "7199": "sydney",
  "7200": "system",
  "7201": "taking",
  "7202": "taylor",
  "7203": "termin",
  "7204": "ternal",
  "7205": "territ",
  "7206": "thomas",
  "7207": "though",
  "7208": "transl",
  "7209": "travel",
  "7210": "uation",
  "7211": "ukrain",
  "7212": "uments",
  "7213": "united",
  "7214": "valley",
  "7215": "victor",
  "7216": "virgin",
  "7217": "vision",
  "7218": "vocals",
  "7219": "weight",
  "7220": "window",
  "7221": "winter",
  "7222": "within",
  "7223": "worked",
  "7224": "writer",
  "7225": "абсолю",
  "7226": "австра",
  "7227": "автобу",
  "7228": "автора",
  "7229": "аккура",
  "7230": "алексе",
  "7231": "алисти",
  "7232": "алкого",
  "7233": "альбом",
  "7234": "альная",
  "7235": "альное",
  "7236": "альной",
  "7237": "альном",
  "7238": "альные",
  "7239": "альный",
  "7240": "альным",
  "7241": "альных",
  "7242": "англий",
  "7243": "андрей",
  "7244": "аппара",
  "7245": "апреля",
  "7246": "аромат",
  "7247": "асфаль",
  "7248": "бассей",
  "7249": "бежала",
  "7250": "бежали",
  "7251": "бежать",
  "7252": "берегу",
  "7253": "биться",
  "7254": "блестя",
  "7255": "ближай",
  "7256": "близко",
  "7257": "бовать",
  "7258": "больно",
  "7259": "больше",
  "7260": "большо",
  "7261": "боялся",
  "7262": "братом",
  "7263": "братья",
  "7264": "британ",
  "7265": "бросив",
  "7266": "бросил",
  "7267": "брошен",
  "7268": "брюнет",
  "7269": "будете",
  "7270": "будешь",
  "7271": "будучи",
  "7272": "бумаги",
  "7273": "бывает",
  "7274": "бывало",
  "7275": "бывший",
  "7276": "быстре",
  "7277": "быстро",
  "7278": "быстры",
  "7279": "вается",
  "7280": "валась",
  "7281": "валери",
  "7282": "вались",
  "7283": "валось",
  "7284": "вампир",
  "7285": "ванной",
  "7286": "ванную",
  "7287": "вариан",
  "7288": "васили",
  "7289": "василь",
  "7290": "ваться",
  "7291": "вашего",
  "7292": "ваются",
  "7293": "вающие",
  "7294": "вающий",
  "7295": "велико",
  "7296": "верить",
  "7297": "вернее",
  "7298": "верхов",
  "7299": "весели",
  "7300": "весело",
  "7301": "весьма",
  "7302": "вечера",
  "7303": "взаимо",
  "7304": "взгляд",
  "7305": "видела",
  "7306": "видели",
  "7307": "видеть",
  "7308": "видимо",
  "7309": "видите",
  "7310": "видишь",
  "7311": "виктор",
  "7312": "винова",
  "7313": "виться",
  "7314": "включи",
  "7315": "власти",
  "7316": "власть",
  "7317": "вместе",
  "7318": "вместо",
  "7319": "внезап",
  "7320": "внешно",
  "7321": "внутри",
  "7322": "внутрь",
  "7323": "водить",
  "7324": "военно",
  "7325": "возвра",
  "7326": "возгла",
  "7327": "воздух",
  "7328": "воздуш",
  "7329": "возмож",
  "7330": "возник",
  "7331": "возраз",
  "7332": "возьми",
  "7333": "войска",
  "7334": "вокруг",
  "7335": "волнов",
  "7336": "волосы",
  "7337": "волшеб",
  "7338": "вольно",
  "7339": "вообра",
  "7340": "вообще",
  "7341": "вопрос",
  "7342": "ворачи",
  "7343": "ворота",
  "7344": "восемь",
  "7345": "воскли",
  "7346": "воскре",
  "7347": "восста",
  "7348": "востор",
  "7349": "вперед",
  "7350": "вперёд",
  "7351": "впечат",
  "7352": "вполне",
  "7353": "времен",
  "7354": "всегда",
  "7355": "вселен",
  "7356": "вскоре",
  "7357": "встала",
  "7358": "встать",
  "7359": "всякий",
  "7360": "вторая",
  "7361": "второе",
  "7362": "второй",
  "7363": "втором",
  "7364": "вторых",
  "7365": "входит",
  "7366": "вчераш",
  "7367": "вшаяся",
  "7368": "вшейся",
  "7369": "вшиеся",
  "7370": "вшийся",
  "7371": "вшихся",
  "7372": "вшуюся",
  "7373": "выбира",
  "7374": "выделя",
  "7375": "выпить",
  "7376": "выпуск",
  "7377": "высоко",
  "7378": "выстав",
  "7379": "выстре",
  "7380": "выступ",
  "7381": "вытащи",
  "7382": "выхода",
  "7383": "выходу",
  "7384": "выясни",
  "7385": "галась",
  "7386": "гались",
  "7387": "где-то",
  "7388": "генера",
  "7389": "гивает",
  "7390": "глазах",
  "7391": "говари",
  "7392": "говори",
  "7393": "говорю",
  "7394": "говоря",
  "7395": "голова",
  "7396": "голове",
  "7397": "голову",
  "7398": "головы",
  "7399": "голоса",
  "7400": "голосе",
  "7401": "города",
  "7402": "городе",
  "7403": "городу",
  "7404": "господ",
  "7405": "гостей",
  "7406": "готова",
  "7407": "готови",
  "7408": "готовы",
  "7409": "гражда",
  "7410": "громко",
  "7411": "группа",
  "7412": "группы",
  "7413": "губами",
  "7414": "гулять",
  "7415": "далеко",
  "7416": "дальше",
  "7417": "данной",
  "7418": "данные",
  "7419": "данный",
  "7420": "данным",
  "7421": "данных",
  "7422": "датель",
  "7423": "дверью",
  "7424": "дворец",
  "7425": "девчон",
  "7426": "делает",
  "7427": "делала",
  "7428": "делали",
  "7429": "делать",
  "7430": "делают",
  "7431": "дельно",
  "7432": "деньги",
  "7433": "депута",
  "7434": "дерева",
  "7435": "дерево",
  "7436": "деревя",
  "7437": "держал",
  "7438": "держит",
  "7439": "десяти",
  "7440": "десять",
  "7441": "джеймс",
  "7442": "джинсы",
  "7443": "дивана",
  "7444": "диване",
  "7445": "дивизи",
  "7446": "диться",
  "7447": "дмитри",
  "7448": "доброе",
  "7449": "добрый",
  "7450": "довать",
  "7451": "довери",
  "7452": "довлет",
  "7453": "доволь",
  "7454": "догады",
  "7455": "доказа",
  "7456": "доктор",
  "7457": "должен",
  "7458": "должна",
  "7459": "должно",
  "7460": "должны",
  "7461": "дорога",
  "7462": "дороге",
  "7463": "дороги",
  "7464": "дорого",
  "7465": "дорогу",
  "7466": "достав",
  "7467": "достал",
  "7468": "достой",
  "7469": "доступ",
  "7470": "дочери",
  "7471": "дракон",
  "7472": "другая",
  "7473": "другие",
  "7474": "другим",
  "7475": "других",
  "7476": "другое",
  "7477": "другой",
  "7478": "другом",
  "7479": "другую",
  "7480": "друзей",
  "7481": "друзья",
  "7482": "думает",
  "7483": "думала",
  "7484": "думали",
  "7485": "думать",
  "7486": "дышать",
  "7487": "европы",
  "7488": "енного",
  "7489": "еписко",
  "7490": "жалась",
  "7491": "жались",
  "7492": "жаться",
  "7493": "ждение",
  "7494": "ждении",
  "7495": "ждения",
  "7496": "жением",
  "7497": "женной",
  "7498": "женные",
  "7499": "женный",
  "7500": "женных",
  "7501": "женщин",
  "7502": "жизнью",
  "7503": "жилась",
  "7504": "жились",
  "7505": "жимает",
  "7506": "жители",
  "7507": "забира",
  "7508": "заболе",
  "7509": "забыла",
  "7510": "забыть",
  "7511": "зависи",
  "7512": "завтра",
  "7513": "загадо",
  "7514": "задумы",
  "7515": "законо",
  "7516": "закрыв",
  "7517": "закрыл",
  "7518": "замеча",
  "7519": "занима",
  "7520": "записи",
  "7521": "захлоп",
  "7522": "заявил",
  "7523": "звезда",
  "7524": "звезды",
  "7525": "звонил",
  "7526": "звонок",
  "7527": "звучит",
  "7528": "здание",
  "7529": "здания",
  "7530": "здоров",
  "7531": "знаете",
  "7532": "знаешь",
  "7533": "знаком",
  "7534": "знания",
  "7535": "значит",
  "7536": "зрения",
  "7537": "зубами",
  "7538": "иванов",
  "7539": "игнори",
  "7540": "играет",
  "7541": "играла",
  "7542": "играли",
  "7543": "играть",
  "7544": "игроки",
  "7545": "из-под",
  "7546": "извест",
  "7547": "извини",
  "7548": "измени",
  "7549": "изобра",
  "7550": "именем",
  "7551": "именно",
  "7552": "импера",
  "7553": "импери",
  "7554": "инициа",
  "7555": "иногда",
  "7556": "инстру",
  "7557": "интере",
  "7558": "искать",
  "7559": "искрен",
  "7560": "испуга",
  "7561": "испыта",
  "7562": "испыты",
  "7563": "истери",
  "7564": "истори",
  "7565": "кабине",
  "7566": "каждая",
  "7567": "каждое",
  "7568": "каждой",
  "7569": "каждом",
  "7570": "каждую",
  "7571": "каждый",
  "7572": "каждым",
  "7573": "казать",
  "7574": "как-то",
  "7575": "какими",
  "7576": "какого",
  "7577": "камень",
  "7578": "капель",
  "7579": "карман",
  "7580": "картин",
  "7581": "катери",
  "7582": "кварти",
  "7583": "кем-то",
  "7584": "кивает",
  "7585": "кивнул",
  "7586": "кладби",
  "7587": "класса",
  "7588": "классе",
  "7589": "класси",
  "7590": "колени",
  "7591": "коллек",
  "7592": "кольцо",
  "7593": "компле",
  "7594": "компью",
  "7595": "конкре",
  "7596": "контак",
  "7597": "контра",
  "7598": "контро",
  "7599": "концер",
  "7600": "концов",
  "7601": "коридо",
  "7602": "короле",
  "7603": "король",
  "7604": "короля",
  "7605": "короче",
  "7606": "костюм",
  "7607": "которо",
  "7608": "которы",
  "7609": "крайне",
  "7610": "красне",
  "7611": "красно",
  "7612": "крепко",
  "7613": "крепче",
  "7614": "кресла",
  "7615": "кресле",
  "7616": "кресло",
  "7617": "кристи",
  "7618": "кричал",
  "7619": "кровью",
  "7620": "крылья",
  "7621": "кстати",
  "7622": "кто-то",
  "7623": "ктором",
  "7624": "купить",
  "7625": "лабора",
  "7626": "ладони",
  "7627": "ладонь",
  "7628": "лежала",
  "7629": "лежали",
  "7630": "лейтен",
  "7631": "лением",
  "7632": "ленная",
  "7633": "ленное",
  "7634": "ленной",
  "7635": "ленную",
  "7636": "ленные",
  "7637": "ленный",
  "7638": "ленным",
  "7639": "ленных",
  "7640": "летела",
  "7641": "летели",
  "7642": "летний",
  "7643": "летних",
  "7644": "литера",
  "7645": "лучший",
  "7646": "лучших",
  "7647": "льзова",
  "7648": "льного",
  "7649": "любила",
  "7650": "любить",
  "7651": "любишь",
  "7652": "любовь",
  "7653": "любого",
  "7654": "людьми",
  "7655": "магази",
  "7656": "максим",
  "7657": "малень",
  "7658": "малфой",
  "7659": "мально",
  "7660": "мальчи",
  "7661": "марина",
  "7662": "маршру",
  "7663": "массов",
  "7664": "мастер",
  "7665": "матери",
  "7666": "махнул",
  "7667": "машина",
  "7668": "машине",
  "7669": "машину",
  "7670": "машины",
  "7671": "медаль",
  "7672": "медици",
  "7673": "ментов",
  "7674": "меньше",
  "7675": "менять",
  "7676": "местах",
  "7677": "месяца",
  "7678": "метрах",
  "7679": "метров",
  "7680": "минуту",
  "7681": "минуты",
  "7682": "миссис",
  "7683": "мистер",
  "7684": "михаил",
  "7685": "мнение",
  "7686": "мнению",
  "7687": "многие",
  "7688": "многих",
  "7689": "многое",
  "7690": "можете",
  "7691": "можешь",
  "7692": "молоде",
  "7693": "молчал",
  "7694": "момент",
  "7695": "москва",
  "7696": "москве",
  "7697": "москвы",
  "7698": "москов",
  "7699": "мужчин",
  "7700": "музыка",
  "7701": "музыку",
  "7702": "муници",
  "7703": "мыслей",
  "7704": "мэттью",
  "7705": "набира",
  "7706": "наблюд",
  "7707": "наверх",
  "7708": "назвал",
  "7709": "наказа",
  "7710": "написа",
  "7711": "направ",
  "7712": "народа",
  "7713": "наружу",
  "7714": "наруто",
  "7715": "наслед",
  "7716": "настой",
  "7717": "настоя",
  "7718": "настро",
  "7719": "наступ",
  "7720": "находи",
  "7721": "находя",
  "7722": "начала",
  "7723": "начале",
  "7724": "начали",
  "7725": "начало",
  "7726": "началу",
  "7727": "началь",
  "7728": "начать",
  "7729": "начина",
  "7730": "нашего",
  "7731": "неболь",
  "7732": "невиди",
  "7733": "недели",
  "7734": "недель",
  "7735": "неделю",
  "7736": "нельзя",
  "7737": "ненави",
  "7738": "ненные",
  "7739": "ненный",
  "7740": "непоня",
  "7741": "нервни",
  "7742": "нервно",
  "7743": "неудоб",
  "7744": "нечего",
  "7745": "нибудь",
  "7746": "никами",
  "7747": "никита",
  "7748": "никого",
  "7749": "никола",
  "7750": "никому",
  "7751": "никуда",
  "7752": "нилась",
  "7753": "ниться",
  "7754": "ничего",
  "7755": "нности",
  "7756": "нность",
  "7757": "новень",
  "7758": "нового",
  "7759": "ногами",
  "7760": "нологи",
  "7761": "носить",
  "7762": "ностью",
  "7763": "ноября",
  "7764": "нского",
  "7765": "нулась",
  "7766": "нулись",
  "7767": "нуться",
  "7768": "няется",
  "7769": "няться",
  "7770": "обеспе",
  "7771": "обещал",
  "7772": "обещаю",
  "7773": "обнару",
  "7774": "обнима",
  "7775": "обняла",
  "7776": "оборот",
  "7777": "образи",
  "7778": "образу",
  "7779": "обстоя",
  "7780": "обходи",
  "7781": "общего",
  "7782": "объеди",
  "7783": "обычно",
  "7784": "овался",
  "7785": "огляды",
  "7786": "ограни",
  "7787": "ографи",
  "7788": "одежда",
  "7789": "одежду",
  "7790": "одежды",
  "7791": "одеяло",
  "7792": "однако",
  "7793": "одного",
  "7794": "одному",
  "7795": "ожидал",
  "7796": "ожидая",
  "7797": "оконча",
  "7798": "окончи",
  "7799": "округа",
  "7800": "окружа",
  "7801": "олимпи",
  "7802": "опасно",
  "7803": "опреде",
  "7804": "опубли",
  "7805": "опуска",
  "7806": "опусти",
  "7807": "органи",
  "7808": "ордена",
  "7809": "оружие",
  "7810": "оружия",
  "7811": "освобо",
  "7812": "основа",
  "7813": "основе",
  "7814": "осозна",
  "7815": "осталь",
  "7816": "осторо",
  "7817": "остров",
  "7818": "ответа",
  "7819": "отдать",
  "7820": "отдела",
  "7821": "отдель",
  "7822": "отдыха",
  "7823": "отказы",
  "7824": "откров",
  "7825": "открыв",
  "7826": "открыл",
  "7827": "откуда",
  "7828": "отличи",
  "7829": "относи",
  "7830": "отправ",
  "7831": "отрица",
  "7832": "отстра",
  "7833": "отсюда",
  "7834": "оттуда",
  "7835": "отчего",
  "7836": "офицер",
  "7837": "очеред",
  "7838": "падает",
  "7839": "пальцы",
  "7840": "памяти",
  "7841": "память",
  "7842": "паралл",
  "7843": "парень",
  "7844": "парней",
  "7845": "парнем",
  "7846": "партии",
  "7847": "пациен",
  "7848": "педаго",
  "7849": "первая",
  "7850": "первое",
  "7851": "первой",
  "7852": "первом",
  "7853": "первую",
  "7854": "первые",
  "7855": "первый",
  "7856": "первым",
  "7857": "первых",
  "7858": "перего",
  "7859": "переда",
  "7860": "переди",
  "7861": "передо",
  "7862": "пережи",
  "7863": "переме",
  "7864": "перено",
  "7865": "пересе",
  "7866": "период",
  "7867": "петров",
  "7868": "писала",
  "7869": "писать",
  "7870": "письма",
  "7871": "письмо",
  "7872": "платье",
  "7873": "плотно",
  "7874": "площад",
  "7875": "победи",
  "7876": "победы",
  "7877": "повели",
  "7878": "поверх",
  "7879": "поводу",
  "7880": "подвер",
  "7881": "подзем",
  "7882": "подним",
  "7883": "подняв",
  "7884": "поднял",
  "7885": "подроб",
  "7886": "подума",
  "7887": "пожела",
  "7888": "позади",
  "7889": "позвал",
  "7890": "поздно",
  "7891": "поздра",
  "7892": "поиска",
  "7893": "пойдем",
  "7894": "пойдём",
  "7895": "показа",
  "7896": "показы",
  "7897": "полага",
  "7898": "полити",
  "7899": "полков",
  "7900": "полной",
  "7901": "полном",
  "7902": "полный",
  "7903": "полови",
  "7904": "положи",
  "7905": "получи",
  "7906": "пользу",
  "7907": "помимо",
  "7908": "помина",
  "7909": "помнил",
  "7910": "помогу",
  "7911": "помочь",
  "7912": "помощи",
  "7913": "помощь",
  "7914": "понадо",
  "7915": "понима",
  "7916": "поняла",
  "7917": "поняли",
  "7918": "понять",
  "7919": "попада",
  "7920": "попала",
  "7921": "попыта",
  "7922": "пороге",
  "7923": "портре",
  "7924": "посети",
  "7925": "послед",
  "7926": "послыш",
  "7927": "посред",
  "7928": "постав",
  "7929": "постеп",
  "7930": "постоя",
  "7931": "постра",
  "7932": "постро",
  "7933": "поступ",
  "7934": "потеря",
  "7935": "потому",
  "7936": "потреб",
  "7937": "поттер",
  "7938": "похоже",
  "7939": "похожи",
  "7940": "похоро",
  "7941": "поцелу",
  "7942": "почему",
  "7943": "появля",
  "7944": "поясни",
  "7945": "правда",
  "7946": "правду",
  "7947": "правды",
  "7948": "правил",
  "7949": "правля",
  "7950": "правой",
  "7951": "практи",
  "7952": "превос",
  "7953": "превра",
  "7954": "предла",
  "7955": "предло",
  "7956": "предпо",
  "7957": "прежде",
  "7958": "прекра",
  "7959": "премии",
  "7960": "прибли",
  "7961": "привез",
  "7962": "привет",
  "7963": "привле",
  "7964": "привык",
  "7965": "пригла",
  "7966": "придет",
  "7967": "прижал",
  "7968": "призна",
  "7969": "призра",
  "7970": "прийти",
  "7971": "приказ",
  "7972": "прикос",
  "7973": "прикры",
  "7974": "примен",
  "7975": "пример",
  "7976": "принад",
  "7977": "принес",
  "7978": "приним",
  "7979": "принце",
  "7980": "принци",
  "7981": "принял",
  "7982": "присел",
  "7983": "присут",
  "7984": "причем",
  "7985": "причём",
  "7986": "пришел",
  "7987": "пришла",
  "7988": "пришли",
  "7989": "пришло",
  "7990": "пришёл",
  "7991": "пробле",
  "7992": "провел",
  "7993": "провер",
  "7994": "провин",
  "7995": "провёл",
  "7996": "прогре",
  "7997": "продол",
  "7998": "продук",
  "7999": "проект",
  "8000": "прозву",
  "8001": "прозра",
  "8002": "произо",
  "8003": "пройти",
  "8004": "прокля",
  "8005": "промыш",
  "8006": "пронзи",
  "8007": "проник",
  "8008": "просил",
  "8009": "прости",
  "8010": "просто",
  "8011": "просты",
  "8012": "против",
  "8013": "протяж",
  "8014": "прочем",
  "8015": "прошел",
  "8016": "прошеп",
  "8017": "прошла",
  "8018": "прошли",
  "8019": "прошло",
  "8020": "прошёл",
  "8021": "пункты",
  "8022": "пустил",
  "8023": "пустой",
  "8024": "путеше",
  "8025": "работа",
  "8026": "работе",
  "8027": "работу",
  "8028": "работы",
  "8029": "развед",
  "8030": "развер",
  "8031": "развле",
  "8032": "разгля",
  "8033": "раздел",
  "8034": "раздра",
  "8035": "различ",
  "8036": "размер",
  "8037": "размыш",
  "8038": "разные",
  "8039": "разных",
  "8040": "разоча",
  "8041": "разуме",
  "8042": "района",
  "8043": "районе",
  "8044": "раньше",
  "8045": "раскры",
  "8046": "распах",
  "8047": "распла",
  "8048": "распро",
  "8049": "расска",
  "8050": "рассла",
  "8051": "расста",
  "8052": "раство",
  "8053": "растер",
  "8054": "ребята",
  "8055": "револю",
  "8056": "регуля",
  "8057": "режисс",
  "8058": "религи",
  "8059": "решила",
  "8060": "решили",
  "8061": "решить",
  "8062": "рилась",
  "8063": "рились",
  "8064": "риться",
  "8065": "ровала",
  "8066": "ровали",
  "8067": "ровать",
  "8068": "родной",
  "8069": "россии",
  "8070": "россий",
  "8071": "россия",
  "8072": "руется",
  "8073": "руками",
  "8074": "сакура",
  "8075": "самого",
  "8076": "самолё",
  "8077": "самому",
  "8078": "санкт-",
  "8079": "сверху",
  "8080": "светло",
  "8081": "светом",
  "8082": "свобод",
  "8083": "своего",
  "8084": "своему",
  "8085": "своими",
  "8086": "связан",
  "8087": "святой",
  "8088": "священ",
  "8089": "сделав",
  "8090": "сделал",
  "8091": "сделаю",
  "8092": "сдержи",
  "8093": "северо",
  "8094": "сезона",
  "8095": "сейчас",
  "8096": "секунд",
  "8097": "сергее",
  "8098": "сергей",
  "8099": "сердца",
  "8100": "сердце",
  "8101": "серьез",
  "8102": "серьёз",
  "8103": "сестра",
  "8104": "сестру",
  "8105": "сестры",
  "8106": "сжимая",
  "8107": "сигаре",
  "8108": "сидела",
  "8109": "сидели",
  "8110": "сидеть",
  "8111": "сильно",
  "8112": "скажет",
  "8113": "сказав",
  "8114": "сказал",
  "8115": "сказан",
  "8116": "скамей",
  "8117": "сквозь",
  "8118": "склады",
  "8119": "скольз",
  "8120": "скорее",
  "8121": "скочил",
  "8122": "скучно",
  "8123": "слегка",
  "8124": "следов",
  "8125": "следом",
  "8126": "словам",
  "8127": "словах",
  "8128": "словно",
  "8129": "словом",
  "8130": "сложно",
  "8131": "службы",
  "8132": "случае",
  "8133": "случай",
  "8134": "слушай",
  "8135": "слушал",
  "8136": "слышал",
  "8137": "слышно",
  "8138": "смерти",
  "8139": "смерть",
  "8140": "смешно",
  "8141": "смогла",
  "8142": "смогли",
  "8143": "сможет",
  "8144": "смотре",
  "8145": "смотри",
  "8146": "смотрю",
  "8147": "смотря",
  "8148": "смысла",
  "8149": "смысле",
  "8150": "собира",
  "8151": "совета",
  "8152": "совсем",
  "8153": "солдат",
  "8154": "солнца",
  "8155": "солнце",
  "8156": "сообщи",
  "8157": "состав",
  "8158": "состоя",
  "8159": "сотруд",
  "8160": "спасти",
  "8161": "спиной",
  "8162": "список",
  "8163": "спокой",
  "8164": "спорта",
  "8165": "способ",
  "8166": "справи",
  "8167": "спраши",
  "8168": "спроси",
  "8169": "спуска",
  "8170": "спусти",
  "8171": "спустя",
  "8172": "сравне",
  "8173": "сравни",
  "8174": "срочно",
  "8175": "ссылки",
  "8176": "ставил",
  "8177": "ставля",
  "8178": "стайлз",
  "8179": "стакан",
  "8180": "станет",
  "8181": "станов",
  "8182": "старик",
  "8183": "старше",
  "8184": "старые",
  "8185": "старый",
  "8186": "ствием",
  "8187": "ствова",
  "8188": "ствует",
  "8189": "ствуют",
  "8190": "стекло",
  "8191": "стоило",
  "8192": "столик",
  "8193": "столов",
  "8194": "столом",
  "8195": "сторон",
  "8196": "стояла",
  "8197": "стояли",
  "8198": "стоять",
  "8199": "стране",
  "8200": "страны",
  "8201": "страха",
  "8202": "стреля",
  "8203": "стреми",
  "8204": "строго",
  "8205": "студен",
  "8206": "ступал",
  "8207": "ступил",
  "8208": "стыдно",
  "8209": "судоро",
  "8210": "судьба",
  "8211": "судьбы",
  "8212": "схвати",
  "8213": "счасть",
  "8214": "считал",
  "8215": "такими",
  "8216": "такого",
  "8217": "талант",
  "8218": "таться",
  "8219": "твоего",
  "8220": "театра",
  "8221": "телефо",
  "8222": "тельно",
  "8223": "телями",
  "8224": "теперь",
  "8225": "тилась",
  "8226": "тились",
  "8227": "титься",
  "8228": "тишина",
  "8229": "тишину",
  "8230": "товари",
  "8231": "только",
  "8232": "точнее",
  "8233": "требов",
  "8234": "третий",
  "8235": "трубку",
  "8236": "трудно",
  "8237": "трудом",
  "8238": "тысячи",
  "8239": "тяжело",
  "8240": "уверен",
  "8241": "увидев",
  "8242": "увидел",
  "8243": "угодно",
  "8244": "ударил",
  "8245": "удержи",
  "8246": "удивля",
  "8247": "ужасно",
  "8248": "узнала",
  "8249": "узнать",
  "8250": "указал",
  "8251": "украин",
  "8252": "улыбка",
  "8253": "улыбке",
  "8254": "улыбку",
  "8255": "умерла",
  "8256": "уничто",
  "8257": "уровне",
  "8258": "уровня",
  "8259": "услови",
  "8260": "успела",
  "8261": "успели",
  "8262": "успока",
  "8263": "успоко",
  "8264": "устави",
  "8265": "устало",
  "8266": "устраи",
  "8267": "устрой",
  "8268": "ухмыль",
  "8269": "уходит",
  "8270": "участи",
  "8271": "факуль",
  "8272": "фамили",
  "8273": "федера",
  "8274": "фигура",
  "8275": "филосо",
  "8276": "фильма",
  "8277": "фильмы",
  "8278": "францу",
  "8279": "футбол",
  "8280": "хватив",
  "8281": "хватил",
  "8282": "хватит",
  "8283": "ходила",
  "8284": "ходили",
  "8285": "ходило",
  "8286": "ходить",
  "8287": "хозяин",
  "8288": "хорошо",
  "8289": "хотела",
  "8290": "хотели",
  "8291": "хотите",
  "8292": "хочешь",
  "8293": "художе",
  "8294": "цветов",
  "8295": "центра",
  "8296": "центре",
  "8297": "церемо",
  "8298": "церкви",
  "8299": "церков",
  "8300": "цивили",
  "8301": "чается",
  "8302": "чалась",
  "8303": "чались",
  "8304": "частью",
  "8305": "челове",
  "8306": "чем-то",
  "8307": "чением",
  "8308": "ченные",
  "8309": "ченный",
  "8310": "черные",
  "8311": "черный",
  "8312": "чертов",
  "8313": "ческая",
  "8314": "ческие",
  "8315": "ческий",
  "8316": "ческим",
  "8317": "ческих",
  "8318": "ческое",
  "8319": "ческой",
  "8320": "ческом",
  "8321": "ческую",
  "8322": "чества",
  "8323": "честве",
  "8324": "чество",
  "8325": "честно",
  "8326": "четвер",
  "8327": "четвёр",
  "8328": "четыре",
  "8329": "читала",
  "8330": "читать",
  "8331": "членом",
  "8332": "что-то",
  "8333": "чувств",
  "8334": "чудови",
  "8335": "шевели",
  "8336": "шерлок",
  "8337": "широко",
  "8338": "щается",
  "8339": "щалась",
  "8340": "щались",
  "8341": "щаться",
  "8342": "щением",
  "8343": "эмоции",
  "8344": "эмоций",
  "8345": "энерги",
  "8346": "ющейся",
  "8347": "ющиеся",
  "8348": "ющийся",
  "8349": "ющихся",
  "8350": "языком",
  "8351": "января",
  "8352": "-нибудь",
  "8353": "ability",
  "8354": "academy",
  "8355": "actions",
  "8356": "actress",
  "8357": "adminis",
  "8358": "african",
  "8359": "against",
  "8360": "airport",
  "8361": "america",
  "8362": "angeles",
  "8363": "another",
  "8364": "appoint",
  "8365": "archite",
  "8366": "artists",
  "8367": "ational",
  "8368": "attempt",
  "8369": "austral",
  "8370": "average",
  "8371": "awarded",
  "8372": "because",
  "8373": "between",
  "8374": "bgcolor",
  "8375": "british",
  "8376": "brother",
  "8377": "brought",
  "8378": "califor",
  "8379": "capital",
  "8380": "captain",
  "8381": "central",
  "8382": "century",
  "8383": "certain",
  "8384": "changed",
  "8385": "channel",
  "8386": "charles",
  "8387": "chester",
  "8388": "chicago",
  "8389": "chinese",
  "8390": "claimed",
  "8391": "college",
  "8392": "command",
  "8393": "commiss",
  "8394": "company",
  "8395": "complet",
  "8396": "complex",
  "8397": "conserv",
  "8398": "consist",
  "8399": "constit",
  "8400": "constru",
  "8401": "contest",
  "8402": "continu",
  "8403": "control",
  "8404": "council",
  "8405": "country",
  "8406": "covered",
  "8407": "created",
  "8408": "culture",
  "8409": "current",
  "8410": "decided",
  "8411": "describ",
  "8412": "despite",
  "8413": "destroy",
  "8414": "develop",
  "8415": "eastern",
  "8416": "edition",
  "8417": "elected",
  "8418": "england",
  "8419": "english",
  "8420": "environ",
  "8421": "episode",
  "8422": "example",
  "8423": "expatri",
  "8424": "express",
  "8425": "feature",
  "8426": "federal",
  "8427": "fiction",
  "8428": "florida",
  "8429": "foreign",
  "8430": "founded",
  "8431": "francis",
  "8432": "further",
  "8433": "general",
  "8434": "germany",
  "8435": "himself",
  "8436": "history",
  "8437": "however",
  "8438": "ificant",
  "8439": "ilities",
  "8440": "ination",
  "8441": "include",
  "8442": "individ",
  "8443": "industr",
  "8444": "instead",
  "8445": "introdu",
  "8446": "ireland",
  "8447": "islands",
  "8448": "italian",
  "8449": "ization",
  "8450": "january",
  "8451": "journal",
  "8452": "justice",
  "8453": "kingdom",
  "8454": "largest",
  "8455": "leading",
  "8456": "library",
  "8457": "limited",
  "8458": "located",
  "8459": "manager",
  "8460": "married",
  "8461": "matches",
  "8462": "matthew",
  "8463": "medical",
  "8464": "members",
  "8465": "michael",
  "8466": "million",
  "8467": "missing",
  "8468": "mission",
  "8469": "municip",
  "8470": "musical",
  "8471": "natural",
  "8472": "network",
  "8473": "notable",
  "8474": "october",
  "8475": "officer",
  "8476": "olympic",
  "8477": "organiz",
  "8478": "outside",
  "8479": "overall",
  "8480": "perform",
  "8481": "players",
  "8482": "playing",
  "8483": "politic",
  "8484": "popular",
  "8485": "premier",
  "8486": "present",
  "8487": "primary",
  "8488": "private",
  "8489": "process",
  "8490": "profess",
  "8491": "program",
  "8492": "project",
  "8493": "provide",
  "8494": "quarter",
  "8495": "railway",
  "8496": "reached",
  "8497": "reading",
  "8498": "records",
  "8499": "regular",
  "8500": "related",
  "8501": "release",
  "8502": "respect",
  "8503": "respons",
  "8504": "results",
  "8505": "richard",
  "8506": "russian",
  "8507": "ryuntyu",
  "8508": "schools",
  "8509": "science",
  "8510": "seasons",
  "8511": "section",
  "8512": "service",
  "8513": "several",
  "8514": "similar",
  "8515": "singles",
  "8516": "society",
  "8517": "sources",
  "8518": "spanish",
  "8519": "special",
  "8520": "species",
  "8521": "stadium",
  "8522": "started",
  "8523": "station",
  "8524": "studies",
  "8525": "subject",
  "8526": "subsequ",
  "8527": "success",
  "8528": "suggest",
  "8529": "support",
  "8530": "systems",
  "8531": "teacher",
  "8532": "theatre",
  "8533": "through",
  "8534": "univers",
  "8535": "usually",
  "8536": "various",
  "8537": "version",
  "8538": "village",
  "8539": "website",
  "8540": "western",
  "8541": "william",
  "8542": "winning",
  "8543": "without",
  "8544": "working",
  "8545": "writers",
  "8546": "writing",
  "8547": "written",
  "8548": "zealand",
  "8549": "августа",
  "8550": "автобус",
  "8551": "академи",
  "8552": "активно",
  "8553": "алексан",
  "8554": "алексей",
  "8555": "ального",
  "8556": "архитек",
  "8557": "бабушка",
  "8558": "безумно",
  "8559": "белосне",
  "8560": "бесконе",
  "8561": "беспоко",
  "8562": "благода",
  "8563": "блондин",
  "8564": "большая",
  "8565": "большие",
  "8566": "большим",
  "8567": "большин",
  "8568": "больших",
  "8569": "большое",
  "8570": "большой",
  "8571": "большом",
  "8572": "большую",
  "8573": "боялась",
  "8574": "бросила",
  "8575": "бросить",
  "8576": "будущее",
  "8577": "будущем",
  "8578": "бутылку",
  "8579": "быстрее",
  "8580": "вариант",
  "8581": "василий",
  "8582": "ведение",
  "8583": "ведения",
  "8584": "великий",
  "8585": "великой",
  "8586": "вернуть",
  "8587": "вечерин",
  "8588": "вечером",
  "8589": "взгляда",
  "8590": "взгляды",
  "8591": "взрослы",
  "8592": "виноват",
  "8593": "включая",
  "8594": "внутрен",
  "8595": "вовремя",
  "8596": "воздуха",
  "8597": "воздухе",
  "8598": "возника",
  "8599": "вопроси",
  "8600": "вопросы",
  "8601": "воспита",
  "8602": "вот-вот",
  "8603": "впервые",
  "8604": "впереди",
  "8605": "впрочем",
  "8606": "времена",
  "8607": "времени",
  "8608": "вспомни",
  "8609": "встрети",
  "8610": "встреча",
  "8611": "встречи",
  "8612": "встречу",
  "8613": "второго",
  "8614": "вшегося",
  "8615": "выполне",
  "8616": "выпуска",
  "8617": "высокий",
  "8618": "выходит",
  "8619": "генерал",
  "8620": "главное",
  "8621": "главный",
  "8622": "главным",
  "8623": "глазами",
  "8624": "глубоко",
  "8625": "говорил",
  "8626": "говорим",
  "8627": "говорит",
  "8628": "говорят",
  "8629": "головой",
  "8630": "голосом",
  "8631": "голубые",
  "8632": "гораздо",
  "8633": "горизон",
  "8634": "господа",
  "8635": "господи",
  "8636": "государ",
  "8637": "граждан",
  "8638": "грустно",
  "8639": "давайте",
  "8640": "дальней",
  "8641": "девочка",
  "8642": "девочки",
  "8643": "девочку",
  "8644": "девушек",
  "8645": "девушка",
  "8646": "девушке",
  "8647": "девушки",
  "8648": "девушку",
  "8649": "действи",
  "8650": "декабря",
  "8651": "делаешь",
  "8652": "демокра",
  "8653": "деревне",
  "8654": "деревни",
  "8655": "деревня",
  "8656": "деревья",
  "8657": "держала",
  "8658": "держать",
  "8659": "детства",
  "8660": "детстве",
  "8661": "джастин",
  "8662": "длинные",
  "8663": "дмитрий",
  "8664": "добавил",
  "8665": "доктора",
  "8666": "дополни",
  "8667": "дорогая",
  "8668": "дорогой",
  "8669": "достала",
  "8670": "достоин",
  "8671": "другими",
  "8672": "другого",
  "8673": "другому",
  "8674": "думаешь",
  "8675": "дыхание",
  "8676": "европей",
  "8677": "екатери",
  "8678": "ждается",
  "8679": "желание",
  "8680": "желания",
  "8681": "железно",
  "8682": "женщина",
  "8683": "женщину",
  "8684": "женщины",
  "8685": "жителей",
  "8686": "журнали",
  "8687": "забрать",
  "8688": "завтрак",
  "8689": "задание",
  "8690": "заканчи",
  "8691": "заклина",
  "8692": "заключи",
  "8693": "закончи",
  "8694": "закрыла",
  "8695": "замести",
  "8696": "заметив",
  "8697": "заметил",
  "8698": "заметно",
  "8699": "занятия",
  "8700": "запомни",
  "8701": "заранее",
  "8702": "застави",
  "8703": "здорово",
  "8704": "зеркало",
  "8705": "знакоми",
  "8706": "знамени",
  "8707": "золотой",
  "8708": "изнутри",
  "8709": "империи",
  "8710": "институ",
  "8711": "интерес",
  "8712": "информа",
  "8713": "исключи",
  "8714": "исполни",
  "8715": "использ",
  "8716": "истории",
  "8717": "историю",
  "8718": "история",
  "8719": "итальян",
  "8720": "кабинет",
  "8721": "каждого",
  "8722": "каждому",
  "8723": "кажется",
  "8724": "кандида",
  "8725": "капитан",
  "8726": "кармана",
  "8727": "картина",
  "8728": "картину",
  "8729": "картины",
  "8730": "кивнула",
  "8731": "кого-то",
  "8732": "кое-что",
  "8733": "коленях",
  "8734": "команда",
  "8735": "команди",
  "8736": "команду",
  "8737": "команды",
  "8738": "комисси",
  "8739": "комната",
  "8740": "комнате",
  "8741": "комнату",
  "8742": "комнаты",
  "8743": "компози",
  "8744": "кому-то",
  "8745": "конечно",
  "8746": "констан",
  "8747": "корабль",
  "8748": "корабля",
  "8749": "коридор",
  "8750": "королев",
  "8751": "коротко",
  "8752": "которая",
  "8753": "которое",
  "8754": "которой",
  "8755": "котором",
  "8756": "которую",
  "8757": "которые",
  "8758": "который",
  "8759": "которым",
  "8760": "которых",
  "8761": "крайней",
  "8762": "красави",
  "8763": "красиво",
  "8764": "красной",
  "8765": "красные",
  "8766": "красный",
  "8767": "крикнул",
  "8768": "кричала",
  "8769": "кричать",
  "8770": "кровати",
  "8771": "кровать",
  "8772": "куда-то",
  "8773": "культур",
  "8774": "ладонью",
  "8775": "ласково",
  "8776": "ленного",
  "8777": "любимой",
  "8778": "любимый",
  "8779": "любовью",
  "8780": "любопыт",
  "8781": "магазин",
  "8782": "мальчик",
  "8783": "месяцев",
  "8784": "металли",
  "8785": "минимум",
  "8786": "мировой",
  "8787": "младший",
  "8788": "молодой",
  "8789": "молчали",
  "8790": "момента",
  "8791": "моменты",
  "8792": "монасты",
  "8793": "мужчина",
  "8794": "мужчину",
  "8795": "мужчины",
  "8796": "музыкан",
  "8797": "мыслями",
  "8798": "наблюда",
  "8799": "наверно",
  "8800": "награды",
  "8801": "надежда",
  "8802": "надежды",
  "8803": "надеюсь",
  "8804": "надеясь",
  "8805": "надоело",
  "8806": "надпись",
  "8807": "надцати",
  "8808": "надцать",
  "8809": "наедине",
  "8810": "назвать",
  "8811": "называе",
  "8812": "наконец",
  "8813": "намного",
  "8814": "написал",
  "8815": "направи",
  "8816": "насторо",
  "8817": "начиная",
  "8818": "невероя",
  "8819": "недавно",
  "8820": "недолго",
  "8821": "недоста",
  "8822": "незнако",
  "8823": "неловко",
  "8824": "немного",
  "8825": "неожида",
  "8826": "неплохо",
  "8827": "неприят",
  "8828": "несколь",
  "8829": "несчаст",
  "8830": "неужели",
  "8831": "нившись",
  "8832": "никаких",
  "8833": "никакой",
  "8834": "никогда",
  "8835": "николай",
  "8836": "новости",
  "8837": "нормаль",
  "8838": "нувшись",
  "8839": "нью-йор",
  "8840": "области",
  "8841": "область",
  "8842": "оборачи",
  "8843": "обрадов",
  "8844": "образом",
  "8845": "обратно",
  "8846": "объясне",
  "8847": "объясни",
  "8848": "объясня",
  "8849": "объятия",
  "8850": "ография",
  "8851": "одинако",
  "8852": "однажды",
  "8853": "окончил",
  "8854": "октября",
  "8855": "олимпий",
  "8856": "онально",
  "8857": "определ",
  "8858": "опустил",
  "8859": "организ",
  "8860": "осматри",
  "8861": "оставив",
  "8862": "оставил",
  "8863": "оставля",
  "8864": "остался",
  "8865": "останов",
  "8866": "остатки",
  "8867": "острова",
  "8868": "ответил",
  "8869": "отключи",
  "8870": "открыла",
  "8871": "открыть",
  "8872": "отличие",
  "8873": "отлично",
  "8874": "отправи",
  "8875": "отпуска",
  "8876": "отпусти",
  "8877": "очередь",
  "8878": "падения",
  "8879": "пальцев",
  "8880": "пальцем",
  "8881": "пассажи",
  "8882": "первого",
  "8883": "перевод",
  "8884": "перемен",
  "8885": "переоде",
  "8886": "переста",
  "8887": "персона",
  "8888": "плакать",
  "8889": "планеты",
  "8890": "плевать",
  "8891": "плечами",
  "8892": "площади",
  "8893": "площадь",
  "8894": "побежал",
  "8895": "поближе",
  "8896": "повезло",
  "8897": "повторя",
  "8898": "погрузи",
  "8899": "подарок",
  "8900": "подборо",
  "8901": "поддерж",
  "8902": "поднима",
  "8903": "подняла",
  "8904": "поднять",
  "8905": "подожди",
  "8906": "подозре",
  "8907": "подозри",
  "8908": "подойдя",
  "8909": "подошел",
  "8910": "подошла",
  "8911": "подошли",
  "8912": "подошёл",
  "8913": "подруга",
  "8914": "подруги",
  "8915": "подругу",
  "8916": "подтвер",
  "8917": "подумал",
  "8918": "подушку",
  "8919": "подходя",
  "8920": "поехали",
  "8921": "пожалуй",
  "8922": "позволи",
  "8923": "позволя",
  "8924": "позднее",
  "8925": "позиции",
  "8926": "поисках",
  "8927": "показал",
  "8928": "покачал",
  "8929": "полицей",
  "8930": "положив",
  "8931": "положил",
  "8932": "полотен",
  "8933": "получил",
  "8934": "полчаса",
  "8935": "помнишь",
  "8936": "поможет",
  "8937": "поморщи",
  "8938": "помощью",
  "8939": "понимал",
  "8940": "понимаю",
  "8941": "понимая",
  "8942": "понрави",
  "8943": "понятия",
  "8944": "понятно",
  "8945": "попасть",
  "8946": "попробу",
  "8947": "попроси",
  "8948": "популяр",
  "8949": "попытки",
  "8950": "порядке",
  "8951": "порядок",
  "8952": "последу",
  "8953": "посреди",
  "8954": "постави",
  "8955": "постара",
  "8956": "постели",
  "8957": "постель",
  "8958": "потерял",
  "8959": "потолок",
  "8960": "поцелов",
  "8961": "поцелуй",
  "8962": "поэтому",
  "8963": "правила",
  "8964": "правило",
  "8965": "править",
  "8966": "предела",
  "8967": "предмет",
  "8968": "предыду",
  "8969": "прекрас",
  "8970": "препода",
  "8971": "прервал",
  "8972": "преступ",
  "8973": "приехал",
  "8974": "примеру",
  "8975": "примеча",
  "8976": "принима",
  "8977": "приняла",
  "8978": "принять",
  "8979": "приобре",
  "8980": "природы",
  "8981": "приходи",
  "8982": "причина",
  "8983": "причине",
  "8984": "приятно",
  "8985": "проблем",
  "8986": "провали",
  "8987": "провела",
  "8988": "проводи",
  "8989": "програм",
  "8990": "происхо",
  "8991": "простой",
  "8992": "просыпа",
  "8993": "противо",
  "8994": "проходи",
  "8995": "проходя",
  "8996": "процесс",
  "8997": "прошлое",
  "8998": "прошлом",
  "8999": "прыгнул",
  "9000": "психоло",
  "9001": "пустила",
  "9002": "пустить",
  "9003": "пытался",
  "9004": "пытаюсь",
  "9005": "пытаясь",
  "9006": "работал",
  "9007": "радости",
  "9008": "радость",
  "9009": "разбира",
  "9010": "разгово",
  "9011": "различи",
  "9012": "разобра",
  "9013": "распола",
  "9014": "располо",
  "9015": "распоря",
  "9016": "рассказ",
  "9017": "расстоя",
  "9018": "растеря",
  "9019": "реально",
  "9020": "ребенка",
  "9021": "ребенок",
  "9022": "ременно",
  "9023": "решение",
  "9024": "решения",
  "9025": "рование",
  "9026": "рования",
  "9027": "родился",
  "9028": "рубашку",
  "9029": "руковод",
  "9030": "русские",
  "9031": "русский",
  "9032": "русских",
  "9033": "русской",
  "9034": "сборной",
  "9035": "святого",
  "9036": "сделала",
  "9037": "сделали",
  "9038": "сделать",
  "9039": "сегодня",
  "9040": "секрета",
  "9041": "секунду",
  "9042": "секунды",
  "9043": "серебря",
  "9044": "сильнее",
  "9045": "сильный",
  "9046": "симпати",
  "9047": "система",
  "9048": "системы",
  "9049": "скажешь",
  "9050": "сказала",
  "9051": "сказали",
  "9052": "сказать",
  "9053": "сколько",
  "9054": "скольку",
  "9055": "скочила",
  "9056": "следить",
  "9057": "следова",
  "9058": "следует",
  "9059": "слишком",
  "9060": "словами",
  "9061": "слушать",
  "9062": "слышала",
  "9063": "слышать",
  "9064": "слышишь",
  "9065": "смеялся",
  "9066": "сможешь",
  "9067": "смотрел",
  "9068": "смотрит",
  "9069": "сначала",
  "9070": "собесед",
  "9071": "событий",
  "9072": "события",
  "9073": "совмест",
  "9074": "согласи",
  "9075": "содержа",
  "9076": "создать",
  "9077": "сообщил",
  "9078": "соответ",
  "9079": "сопрово",
  "9080": "сопроти",
  "9081": "соревно",
  "9082": "сосредо",
  "9083": "составе",
  "9084": "состави",
  "9085": "состоит",
  "9086": "сохрани",
  "9087": "социаль",
  "9088": "спасибо",
  "9089": "спортив",
  "9090": "справед",
  "9091": "спросил",
  "9092": "ставить",
  "9093": "стандар",
  "9094": "станови",
  "9095": "станции",
  "9096": "старший",
  "9097": "ственно",
  "9098": "ствовал",
  "9099": "степени",
  "9100": "стности",
  "9101": "столько",
  "9102": "стороне",
  "9103": "сторону",
  "9104": "стороны",
  "9105": "странно",
  "9106": "страшно",
  "9107": "ступает",
  "9108": "ступать",
  "9109": "ступила",
  "9110": "ступили",
  "9111": "ступить",
  "9112": "существ",
  "9113": "схватил",
  "9114": "счастли",
  "9115": "счастье",
  "9116": "счастью",
  "9117": "счастья",
  "9118": "считает",
  "9119": "считать",
  "9120": "телефон",
  "9121": "тельная",
  "9122": "тельное",
  "9123": "тельной",
  "9124": "тельном",
  "9125": "тельную",
  "9126": "тельные",
  "9127": "тельный",
  "9128": "тельным",
  "9129": "тельных",
  "9130": "тельств",
  "9131": "темноте",
  "9132": "темпера",
  "9133": "терпели",
  "9134": "терпеть",
  "9135": "террито",
  "9136": "течение",
  "9137": "тировал",
  "9138": "толкнул",
  "9139": "требова",
  "9140": "убивать",
  "9141": "увеличи",
  "9142": "уверена",
  "9143": "увидела",
  "9144": "увидели",
  "9145": "увидеть",
  "9146": "удалось",
  "9147": "удовлет",
  "9148": "удоволь",
  "9149": "украины",
  "9150": "улыбкой",
  "9151": "умереть",
  "9152": "упомина",
  "9153": "управля",
  "9154": "уровень",
  "9155": "услышав",
  "9156": "услышал",
  "9157": "успешно",
  "9158": "успокаи",
  "9159": "успокои",
  "9160": "успокой",
  "9161": "установ",
  "9162": "уходить",
  "9163": "участие",
  "9164": "учитель",
  "9165": "учителя",
  "9166": "учиться",
  "9167": "февраля",
  "9168": "философ",
  "9169": "франции",
  "9170": "француз",
  "9171": "футболи",
  "9172": "фыркнул",
  "9173": "хватает",
  "9174": "хватало",
  "9175": "хватила",
  "9176": "хватило",
  "9177": "хватить",
  "9178": "хмыкнул",
  "9179": "хозяина",
  "9180": "холодно",
  "9181": "хорошая",
  "9182": "хорошее",
  "9183": "хороший",
  "9184": "хочется",
  "9185": "церковь",
  "9186": "циональ",
  "9187": "ционной",
  "9188": "чего-то",
  "9189": "человек",
  "9190": "чемпион",
  "9191": "ческими",
  "9192": "ческого",
  "9193": "чувства",
  "9194": "чувство",
  "9195": "чувству",
  "9196": "экономи",
  "9197": "экспери",
  "9198": "электри",
  "9199": "электро",
  "9200": "энергии",
  "9201": "ющегося",
  "9202": "--------",
  "9203": "-century",
  "9204": "academic",
  "9205": "addition",
  "9206": "aircraft",
  "9207": "although",
  "9208": "american",
  "9209": "appeared",
  "9210": "approxim",
  "9211": "assembly",
  "9212": "attended",
  "9213": "baseball",
  "9214": "building",
  "9215": "business",
  "9216": "campaign",
  "9217": "canadian",
  "9218": "carolina",
  "9219": "catholic",
  "9220": "champion",
  "9221": "children",
  "9222": "communic",
  "9223": "complete",
  "9224": "congress",
  "9225": "contract",
  "9226": "cultural",
  "9227": "daughter",
  "9228": "december",
  "9229": "decision",
  "9230": "defeated",
  "9231": "designed",
  "9232": "directed",
  "9233": "director",
  "9234": "district",
  "9235": "division",
  "9236": "document",
  "9237": "economic",
  "9238": "election",
  "9239": "electric",
  "9240": "engineer",
  "9241": "european",
  "9242": "external",
  "9243": "families",
  "9244": "featured",
  "9245": "features",
  "9246": "february",
  "9247": "festival",
  "9248": "finished",
  "9249": "followed",
  "9250": "football",
  "9251": "function",
  "9252": "governor",
  "9253": "heritage",
  "9254": "historic",
  "9255": "hospital",
  "9256": "included",
  "9257": "includes",
  "9258": "incorpor",
  "9259": "independ",
  "9260": "industry",
  "9261": "interest",
  "9262": "investig",
  "9263": "involved",
  "9264": "iography",
  "9265": "japanese",
  "9266": "language",
  "9267": "location",
  "9268": "magazine",
  "9269": "manufact",
  "9270": "material",
  "9271": "military",
  "9272": "minister",
  "9273": "mountain",
  "9274": "movement",
  "9275": "national",
  "9276": "northern",
  "9277": "november",
  "9278": "official",
  "9279": "ological",
  "9280": "olympics",
  "9281": "original",
  "9282": "particip",
  "9283": "personal",
  "9284": "position",
  "9285": "possible",
  "9286": "previous",
  "9287": "produced",
  "9288": "producer",
  "9289": "provided",
  "9290": "province",
  "9291": "received",
  "9292": "recorded",
  "9293": "regiment",
  "9294": "regional",
  "9295": "register",
  "9296": "relation",
  "9297": "released",
  "9298": "remained",
  "9299": "replaced",
  "9300": "reported",
  "9301": "republic",
  "9302": "research",
  "9303": "returned",
  "9304": "scottish",
  "9305": "security",
  "9306": "selected",
  "9307": "services",
  "9308": "southern",
  "9309": "specific",
  "9310": "standard",
  "9311": "standing",
  "9312": "stations",
  "9313": "students",
  "9314": "sylvania",
  "9315": "together",
  "9316": "training",
  "9317": "transfer",
  "9318": "virginia",
  "9319": "автомоби",
  "9320": "академии",
  "9321": "американ",
  "9322": "атмосфер",
  "9323": "беспокой",
  "9324": "бесполез",
  "9325": "библиоте",
  "9326": "благодар",
  "9327": "больнице",
  "9328": "большого",
  "9329": "бросился",
  "9330": "великого",
  "9331": "великоле",
  "9332": "вернулся",
  "9333": "вероятно",
  "9334": "взглядом",
  "9335": "взглянул",
  "9336": "вздохнув",
  "9337": "вздохнул",
  "9338": "владимир",
  "9339": "внезапно",
  "9340": "внимание",
  "9341": "внимания",
  "9342": "водитель",
  "9343": "возвраща",
  "9344": "возможно",
  "9345": "возраста",
  "9346": "возрасте",
  "9347": "волосами",
  "9348": "вопросов",
  "9349": "временем",
  "9350": "все-таки",
  "9351": "вспомина",
  "9352": "вспомнил",
  "9353": "встретил",
  "9354": "всё-таки",
  "9355": "выглядел",
  "9356": "выглядит",
  "9357": "выдохнул",
  "9358": "вынужден",
  "9359": "генерал-",
  "9360": "германии",
  "9361": "гермиона",
  "9362": "главного",
  "9363": "глядывая",
  "9364": "говорила",
  "9365": "говорили",
  "9366": "говорить",
  "9367": "говоришь",
  "9368": "господин",
  "9369": "гостиной",
  "9370": "гостиную",
  "9371": "готовить",
  "9372": "двадцать",
  "9373": "движение",
  "9374": "движения",
  "9375": "двинулся",
  "9376": "девушкой",
  "9377": "девчонка",
  "9378": "действие",
  "9379": "действий",
  "9380": "действия",
  "9381": "деревьев",
  "9382": "держался",
  "9383": "директор",
  "9384": "довольно",
  "9385": "договори",
  "9386": "друзьями",
  "9387": "животных",
  "9388": "закончил",
  "9389": "заметила",
  "9390": "заметить",
  "9391": "заставил",
  "9392": "заставля",
  "9393": "знакомый",
  "9394": "значение",
  "9395": "значения",
  "9396": "иванович",
  "9397": "известно",
  "9398": "извините",
  "9399": "издатель",
  "9400": "изменить",
  "9401": "иностран",
  "9402": "институт",
  "9403": "интеллек",
  "9404": "интересу",
  "9405": "искренне",
  "9406": "использу",
  "9407": "кабинета",
  "9408": "кабинете",
  "9409": "казалось",
  "9410": "казаться",
  "9411": "какая-то",
  "9412": "какие-то",
  "9413": "каким-то",
  "9414": "какое-то",
  "9415": "какой-то",
  "9416": "какую-то",
  "9417": "капитана",
  "9418": "касается",
  "9419": "катастро",
  "9420": "качестве",
  "9421": "квартире",
  "9422": "квартиру",
  "9423": "квартиры",
  "9424": "кладбище",
  "9425": "когда-то",
  "9426": "командир",
  "9427": "коммента",
  "9428": "компании",
  "9429": "компания",
  "9430": "конструк",
  "9431": "контроли",
  "9432": "коридоре",
  "9433": "коридору",
  "9434": "королева",
  "9435": "которого",
  "9436": "которому",
  "9437": "которыми",
  "9438": "красивая",
  "9439": "красивый",
  "9440": "красного",
  "9441": "крикнула",
  "9442": "культуры",
  "9443": "ленности",
  "9444": "лестнице",
  "9445": "любимого",
  "9446": "мальчика",
  "9447": "математи",
  "9448": "материал",
  "9449": "медленно",
  "9450": "меняется",
  "9451": "министер",
  "9452": "министра",
  "9453": "многочис",
  "9454": "молодого",
  "9455": "молчание",
  "9456": "мысленно",
  "9457": "наблюдал",
  "9458": "наблюдая",
  "9459": "наверное",
  "9460": "навсегда",
  "9461": "название",
  "9462": "назначен",
  "9463": "называть",
  "9464": "наиболее",
  "9465": "наоборот",
  "9466": "написано",
  "9467": "напомина",
  "9468": "направля",
  "9469": "например",
  "9470": "напротив",
  "9471": "наслажда",
  "9472": "началась",
  "9473": "началось",
  "9474": "начально",
  "9475": "начинает",
  "9476": "невольно",
  "9477": "невыноси",
  "9478": "недалеко",
  "9479": "недоволь",
  "9480": "независи",
  "9481": "незнаком",
  "9482": "неизвест",
  "9483": "ненавижу",
  "9484": "необходи",
  "9485": "непонима",
  "9486": "непосред",
  "9487": "несмотря",
  "9488": "никакого",
  "9489": "нравится",
  "9490": "образова",
  "9491": "обстанов",
  "9492": "общаться",
  "9493": "общества",
  "9494": "общество",
  "9495": "огромный",
  "9496": "ожиданно",
  "9497": "означает",
  "9498": "оказался",
  "9499": "операции",
  "9500": "описание",
  "9501": "определи",
  "9502": "определя",
  "9503": "организа",
  "9504": "основной",
  "9505": "основном",
  "9506": "особенно",
  "9507": "оставить",
  "9508": "оставляя",
  "9509": "остается",
  "9510": "осталась",
  "9511": "остались",
  "9512": "осталось",
  "9513": "останови",
  "9514": "остаться",
  "9515": "осуществ",
  "9516": "ответила",
  "9517": "ответить",
  "9518": "отвечает",
  "9519": "отвечать",
  "9520": "отправля",
  "9521": "отпустил",
  "9522": "отчаянно",
  "9523": "официаль",
  "9524": "очевидно",
  "9525": "ощущение",
  "9526": "ощущения",
  "9527": "пальцами",
  "9528": "передано",
  "9529": "переписи",
  "9530": "перестал",
  "9531": "писатель",
  "9532": "пистолет",
  "9533": "побежала",
  "9534": "поверить",
  "9535": "поворачи",
  "9536": "подальше",
  "9537": "подготов",
  "9538": "поддержи",
  "9539": "поднялся",
  "9540": "подобное",
  "9541": "подумала",
  "9542": "подумать",
  "9543": "подходит",
  "9544": "показать",
  "9545": "покрасне",
  "9546": "половину",
  "9547": "положила",
  "9548": "получила",
  "9549": "получить",
  "9550": "пользова",
  "9551": "помогать",
  "9552": "понадоби",
  "9553": "понимает",
  "9554": "понимала",
  "9555": "понимать",
  "9556": "попросил",
  "9557": "последов",
  "9558": "посмотре",
  "9559": "посмотри",
  "9560": "поставил",
  "9561": "постанов",
  "9562": "поступил",
  "9563": "потеряла",
  "9564": "появился",
  "9565": "праздник",
  "9566": "предпола",
  "9567": "предполо",
  "9568": "предприя",
  "9569": "председа",
  "9570": "представ",
  "9571": "предстоя",
  "9572": "предупре",
  "9573": "прежнему",
  "9574": "президен",
  "9575": "преимуще",
  "9576": "прекрати",
  "9577": "приближа",
  "9578": "приблизи",
  "9579": "привести",
  "9580": "привычно",
  "9581": "приготов",
  "9582": "придется",
  "9583": "придётся",
  "9584": "приехали",
  "9585": "приказал",
  "9586": "примерно",
  "9587": "принципе",
  "9588": "принялся",
  "9589": "присоеди",
  "9590": "приходит",
  "9591": "пришлось",
  "9592": "приятный",
  "9593": "проблема",
  "9594": "проблемы",
  "9595": "пробормо",
  "9596": "провести",
  "9597": "продолжа",
  "9598": "производ",
  "9599": "произнес",
  "9600": "произнёс",
  "9601": "простите",
  "9602": "простран",
  "9603": "противля",
  "9604": "протянул",
  "9605": "професси",
  "9606": "профессо",
  "9607": "проходит",
  "9608": "прошлого",
  "9609": "пытается",
  "9610": "пыталась",
  "9611": "пытались",
  "9612": "работает",
  "9613": "работала",
  "9614": "работать",
  "9615": "радостно",
  "9616": "развитие",
  "9617": "развития",
  "9618": "разгляды",
  "9619": "разговор",
  "9620": "раздался",
  "9621": "размышля",
  "9622": "разработ",
  "9623": "расскажи",
  "9624": "расскажу",
  "9625": "рассказы",
  "9626": "рассчиты",
  "9627": "результа",
  "9628": "религиоз",
  "9629": "республи",
  "9630": "рованный",
  "9631": "роваться",
  "9632": "родители",
  "9633": "родствен",
  "9634": "рождения",
  "9635": "руководи",
  "9636": "русского",
  "9637": "самостоя",
  "9638": "сегодняш",
  "9639": "сентября",
  "9640": "середине",
  "9641": "серьезно",
  "9642": "серьёзно",
  "9643": "ситуации",
  "9644": "ситуацию",
  "9645": "ситуация",
  "9646": "скорость",
  "9647": "случайно",
  "9648": "смеялась",
  "9649": "смеялись",
  "9650": "смеяться",
  "9651": "смотрела",
  "9652": "смотрели",
  "9653": "смотреть",
  "9654": "собствен",
  "9655": "совершен",
  "9656": "современ",
  "9657": "согласен",
  "9658": "согласно",
  "9659": "создание",
  "9660": "создания",
  "9661": "сознание",
  "9662": "сознания",
  "9663": "составля",
  "9664": "сотрудни",
  "9665": "специали",
  "9666": "специаль",
  "9667": "спокойно",
  "9668": "способен",
  "9669": "спросила",
  "9670": "спросить",
  "9671": "средства",
  "9672": "старался",
  "9673": "стараясь",
  "9674": "старшего",
  "9675": "ственная",
  "9676": "ственное",
  "9677": "ственной",
  "9678": "ственную",
  "9679": "ственные",
  "9680": "ственный",
  "9681": "ственным",
  "9682": "ственных",
  "9683": "ствовала",
  "9684": "ствовали",
  "9685": "ствовать",
  "9686": "ствующих",
  "9687": "сторонам",
  "9688": "странное",
  "9689": "странный",
  "9690": "сумасшед",
  "9691": "существа",
  "9692": "существо",
  "9693": "счастлив",
  "9694": "тельница",
  "9695": "тельного",
  "9696": "тельными",
  "9697": "тельства",
  "9698": "тельство",
  "9699": "тихонько",
  "9700": "тридцать",
  "9701": "уверенно",
  "9702": "удивился",
  "9703": "улыбался",
  "9704": "улыбаясь",
  "9705": "универси",
  "9706": "условиях",
  "9707": "услышала",
  "9708": "услышать",
  "9709": "установи",
  "9710": "финансов",
  "9711": "футболку",
  "9712": "характер",
  "9713": "холодиль",
  "9714": "холодной",
  "9715": "холодный",
  "9716": "хорошего",
  "9717": "хотелось",
  "9718": "христиан",
  "9719": "художник",
  "9720": "человека",
  "9721": "человеку",
  "9722": "чемпиона",
  "9723": "чувствов",
  "9724": "чувствую",
  "9725": "чувствуя",
  "9726": "является",
  "9727": "являются",
  "9728": "according",
  "9729": "administr",
  "9730": "announced",
  "9731": "appointed",
  "9732": "australia",
  "9733": "available",
  "9734": "beginning",
  "9735": "biography",
  "9736": "broadcast",
  "9737": "buildings",
  "9738": "character",
  "9739": "christian",
  "9740": "committee",
  "9741": "community",
  "9742": "companies",
  "9743": "completed",
  "9744": "continued",
  "9745": "contribut",
  "9746": "countries",
  "9747": "currently",
  "9748": "described",
  "9749": "developed",
  "9750": "different",
  "9751": "distribut",
  "9752": "education",
  "9753": "elections",
  "9754": "entertain",
  "9755": "establish",
  "9756": "executive",
  "9757": "following",
  "9758": "formation",
  "9759": "ification",
  "9760": "important",
  "9761": "including",
  "9762": "initially",
  "9763": "institute",
  "9764": "interview",
  "9765": "municipal",
  "9766": "operation",
  "9767": "performan",
  "9768": "performed",
  "9769": "personnel",
  "9770": "political",
  "9771": "president",
  "9772": "professor",
  "9773": "published",
  "9774": "represent",
  "9775": "secretary",
  "9776": "september",
  "9777": "structure",
  "9778": "tradition",
  "9779": "transport",
  "9780": "wikipedia",
  "9781": "абсолютно",
  "9782": "аккуратно",
  "9783": "александр",
  "9784": "биография",
  "9785": "благодаря",
  "9786": "блондинка",
  "9787": "буквально",
  "9788": "великолеп",
  "9789": "вернулась",
  "9790": "вернулись",
  "9791": "вернуться",
  "9792": "взглянула",
  "9793": "вздохнула",
  "9794": "во-первых",
  "9795": "вообще-то",
  "9796": "воспомина",
  "9797": "вселенной",
  "9798": "вспомнила",
  "9799": "вспомнить",
  "9800": "выражение",
  "9801": "география",
  "9802": "городской",
  "9803": "двигаться",
  "9804": "движением",
  "9805": "демонстри",
  "9806": "держаться",
  "9807": "директора",
  "9808": "документы",
  "9809": "должность",
  "9810": "задумался",
  "9811": "задумчиво",
  "9812": "занимался",
  "9813": "засмеялся",
  "9814": "заставить",
  "9815": "заставляя",
  "9816": "здравству",
  "9817": "изменения",
  "9818": "император",
  "9819": "института",
  "9820": "интересно",
  "9821": "интересов",
  "9822": "интересом",
  "9823": "искусства",
  "9824": "использов",
  "9825": "испуганно",
  "9826": "исследова",
  "9827": "какого-то",
  "9828": "компьютер",
  "9829": "лейтенант",
  "9830": "литератур",
  "9831": "маленькая",
  "9832": "маленькие",
  "9833": "маленький",
  "9834": "маленькой",
  "9835": "мальчишка",
  "9836": "мгновение",
  "9837": "мгновенно",
  "9838": "множество",
  "9839": "наблюдать",
  "9840": "наверняка",
  "9841": "навстречу",
  "9842": "названием",
  "9843": "население",
  "9844": "населения",
  "9845": "насколько",
  "9846": "настолько",
  "9847": "настоящее",
  "9848": "настоящий",
  "9849": "находился",
  "9850": "находится",
  "9851": "националь",
  "9852": "начальник",
  "9853": "небольшой",
  "9854": "незаметно",
  "9855": "некоторое",
  "9856": "некоторые",
  "9857": "некоторых",
  "9858": "неприятно",
  "9859": "несколько",
  "9860": "нормально",
  "9861": "нравилось",
  "9862": "обернулся",
  "9863": "обратился",
  "9864": "объяснить",
  "9865": "однокласс",
  "9866": "оказалась",
  "9867": "оказались",
  "9868": "оказалось",
  "9869": "оказаться",
  "9870": "окончания",
  "9871": "опасности",
  "9872": "опасность",
  "9873": "остальные",
  "9874": "остальных",
  "9875": "останавли",
  "9876": "останется",
  "9877": "осторожно",
  "9878": "отдохнуть",
  "9879": "открылась",
  "9880": "относится",
  "9881": "отношение",
  "9882": "отношений",
  "9883": "отношения",
  "9884": "отозвался",
  "9885": "очередной",
  "9886": "петербург",
  "9887": "поведение",
  "9888": "поднялась",
  "9889": "подняться",
  "9890": "подобного",
  "9891": "позволяет",
  "9892": "познакоми",
  "9893": "полковник",
  "9894": "полностью",
  "9895": "положение",
  "9896": "получится",
  "9897": "помещение",
  "9898": "понимаешь",
  "9899": "попросила",
  "9900": "попытался",
  "9901": "поселения",
  "9902": "поскольку",
  "9903": "последнее",
  "9904": "последней",
  "9905": "последние",
  "9906": "последний",
  "9907": "последних",
  "9908": "последнюю",
  "9909": "последняя",
  "9910": "последова",
  "9911": "посмотрев",
  "9912": "посмотрел",
  "9913": "посмотрим",
  "9914": "постоянно",
  "9915": "поцеловал",
  "9916": "почему-то",
  "9917": "появилась",
  "9918": "появились",
  "9919": "правильно",
  "9920": "правитель",
  "9921": "православ",
  "9922": "предатель",
  "9923": "предложил",
  "9924": "представи",
  "9925": "президент",
  "9926": "прекрасно",
  "9927": "преподава",
  "9928": "прикоснов",
  "9929": "принимать",
  "9930": "принцесса",
  "9931": "принялась",
  "9932": "проверить",
  "9933": "проводить",
  "9934": "продолжал",
  "9935": "продолжая",
  "9936": "продолжил",
  "9937": "производи",
  "9938": "произошло",
  "9939": "происходя",
  "9940": "проснулся",
  "9941": "протянула",
  "9942": "профессор",
  "9943": "прошептал",
  "9944": "разговари",
  "9945": "разговора",
  "9946": "различных",
  "9947": "рассказал",
  "9948": "рассматри",
  "9949": "результат",
  "9950": "родителей",
  "9951": "сельского",
  "9952": "следующий",
  "9953": "случилось",
  "9954": "собирался",
  "9955": "собираюсь",
  "9956": "советский",
  "9957": "сожалению",
  "9958": "сообщение",
  "9959": "сосредото",
  "9960": "состояние",
  "9961": "состоянии",
  "9962": "спокойной",
  "9963": "старалась",
  "9964": "ственного",
  "9965": "тельности",
  "9966": "тельность",
  "9967": "технологи",
  "9968": "удивилась",
  "9969": "удивление",
  "9970": "удивленно",
  "9971": "улыбается",
  "9972": "улыбнулся",
  "9973": "успокойся",
  "9974": "уставился",
  "9975": "федерации",
  "9976": "фотографи",
  "9977": "характери",
  "9978": "частности",
  "9979": "человеком",
  "9980": "чувствует",
  "9981": "чуть-чуть",
  "9982": "additional",
  "9983": "australian",
  "9984": "background",
  "9985": "basketball",
  "9986": "california",
  "9987": "characters",
  "9988": "collection",
  "9989": "commercial",
  "9990": "commission",
  "9991": "conference",
  "9992": "considered",
  "9993": "democratic",
  "9994": "department",
  "9995": "eventually",
  "9996": "expatriate",
  "9997": "footballer",
  "9998": "foundation",
  "9999": "government",
  "10000": "historical",
  "10001": "individual",
  "10002": "introduced",
  "10003": "literature",
  "10004": "management",
  "10005": "operations",
  "10006": "originally",
  "10007": "parliament",
  "10008": "particular",
  "10009": "politician",
  "10010": "population",
  "10011": "previously",
  "10012": "production",
  "10013": "references",
  "10014": "republican",
  "10015": "revolution",
  "10016": "st-century",
  "10017": "successful",
  "10018": "technology",
  "10019": "television",
  "10020": "th-century",
  "10021": "throughout",
  "10022": "tournament",
  "10023": "university",
  "10024": "washington",
  "10025": "администра",
  "10026": "александра",
  "10027": "библиотеки",
  "10028": "воскликнул",
  "10029": "выпускники",
  "10030": "достаточно",
  "10031": "заниматься",
  "10032": "захотелось",
  "10033": "изменилось",
  "10034": "информации",
  "10035": "информацию",
  "10036": "информация",
  "10037": "использова",
  "10038": "километров",
  "10039": "количество",
  "10040": "кто-нибудь",
  "10041": "литература",
  "10042": "международ",
  "10043": "муниципаль",
  "10044": "называется",
  "10045": "наконец-то",
  "10046": "направился",
  "10047": "населённые",
  "10048": "настоящему",
  "10049": "настроение",
  "10050": "нахмурился",
  "10051": "находилась",
  "10052": "находились",
  "10053": "находиться",
  "10054": "начинается",
  "10055": "невероятно",
  "10056": "невозможно",
  "10057": "недовольно",
  "10058": "неизвестно",
  "10059": "немедленно",
  "10060": "необходимо",
  "10061": "неожиданно",
  "10062": "нескольких",
  "10063": "неуверенно",
  "10064": "обернулась",
  "10065": "оставалось",
  "10066": "оставаться",
  "10067": "остановить",
  "10068": "отправился",
  "10069": "отсутствие",
  "10070": "повернулся",
  "10071": "поговорить",
  "10072": "подбородок",
  "10073": "пожалуйста",
  "10074": "показалось",
  "10075": "получается",
  "10076": "получалось",
  "10077": "получилось",
  "10078": "попыталась",
  "10079": "последнего",
  "10080": "послышался",
  "10081": "посмотрела",
  "10082": "посмотреть",
  "10083": "постепенно",
  "10084": "появляется",
  "10085": "представля",
  "10086": "президента",
  "10087": "примечания",
  "10088": "пристально",
  "10089": "приходится",
  "10090": "проговорил",
  "10091": "продолжает",
  "10092": "продолжала",
  "10093": "продолжила",
  "10094": "произнесла",
  "10095": "происходит",
  "10096": "проснулась",
  "10097": "противника",
  "10098": "протяжении",
  "10099": "прошептала",
  "10100": "пятнадцать",
  "10101": "разглядеть",
  "10102": "разумеется",
  "10103": "расположен",
  "10104": "распростра",
  "10105": "рассказала",
  "10106": "рассказать",
  "10107": "рассмеялся",
  "10108": "расстояние",
  "10109": "расстоянии",
  "10110": "реальности",
  "10111": "реальность",
  "10112": "результате",
  "10113": "результаты",
  "10114": "республики",
  "10115": "решительно",
  "10116": "российский",
  "10117": "российской",
  "10118": "собирается",
  "10119": "собиралась",
  "10120": "собственно",
  "10121": "совершенно",
  "10122": "советского",
  "10123": "согласился",
  "10124": "сопротивля",
  "10125": "составляет",
  "10126": "специально",
  "10127": "спрашивает",
  "10128": "становится",
  "10129": "существова",
  "10130": "существует",
  "10131": "территории",
  "10132": "улыбнулась",
  "10133": "университе",
  "10134": "управления",
  "10135": "усмехнулся",
  "10136": "участвовал",
  "10137": "фотографии",
  "10138": "чемпионата",
  "10139": "что-нибудь",
  "10140": "чувствовал",
  "10141": "association",
  "10142": "competition",
  "10143": "development",
  "10144": "engineering",
  "10145": "environment",
  "10146": "established",
  "10147": "footballers",
  "10148": "independent",
  "10149": "information",
  "10150": "performance",
  "10151": "politicians",
  "10152": "represented",
  "10153": "significant",
  "10154": "traditional",
  "10155": "большинство",
  "10156": "великобрита",
  "10157": "внимательно",
  "10158": "возможности",
  "10159": "возможность",
  "10160": "воскликнула",
  "10161": "впечатление",
  "10162": "встретиться",
  "10163": "государства",
  "10164": "действовать",
  "10165": "естественно",
  "10166": "железнодоро",
  "10167": "заинтересов",
  "10168": "значительно",
  "10169": "направилась",
  "10170": "направлении",
  "10171": "образование",
  "10172": "образования",
  "10173": "обязательно",
  "10174": "оказывается",
  "10175": "олимпийских",
  "10176": "организации",
  "10177": "остановился",
  "10178": "по-прежнему",
  "10179": "повернулась",
  "10180": "поверхности",
  "10181": "поинтересов",
  "10182": "понравилось",
  "10183": "попробовать",
  "10184": "последствии",
  "10185": "практически",
  "10186": "предложение",
  "10187": "представить",
  "10188": "приходилось",
  "10189": "пробормотал",
  "10190": "проговорила",
  "10191": "происходило",
  "10192": "противополо",
  "10193": "развернулся",
  "10194": "разобраться",
  "10195": "рассказывал",
  "10196": "собственной",
  "10197": "согласилась",
  "10198": "способности",
  "10199": "справедливо",
  "10200": "становилось",
  "10201": "температура",
  "10202": "удивительно",
  "10203": "улыбнувшись",
  "10204": "университет",
  "10205": "усмехнулась",
  "10206": "ухмыльнулся",
  "10207": "чувствовала",
  "10208": "чувствовать",
  "10209": "bibliography",
  "10210": "championship",
  "10211": "construction",
  "10212": "municipality",
  "10213": "organization",
  "10214": "pennsylvania",
  "10215": "professional",
  "10216": "безопасности",
  "10217": "возвращаться",
  "10218": "воспоминания",
  "10219": "впоследствии",
  "10220": "деятельности",
  "10221": "деятельность",
  "10222": "единственное",
  "10223": "единственный",
  "10224": "единственным",
  "10225": "здравствуйте",
  "10226": "использовать",
  "10227": "исследования",
  "10228": "когда-нибудь",
  "10229": "национальной",
  "10230": "одновременно",
  "10231": "окончательно",
  "10232": "остановилась",
  "10233": "ответственно",
  "10234": "относительно",
  "10235": "почувствовал",
  "10236": "представляет",
  "10237": "произведения",
  "10238": "пространство",
  "10239": "рассказывать"
}